<pad>	0
<bos>	0
<eos>	0
<unk>	0
en	-0
er	-1
in	-2
▁a	-3
▁t	-4
▁d	-5
ch	-6
es	-7
on	-8
▁th	-9
un	-10
it	-11
is	-12
▁s	-13
▁w	-14
at	-15
ie	-16
or	-17
an	-18
▁the	-19
re	-20
▁b	-21
▁o	-22
al	-23
ar	-24
▁in	-25
▁f	-26
ich	-27
▁m	-28
te	-29
ion	-30
▁e	-31
▁an	-32
ur	-33
as	-34
le	-35
▁p	-36
▁c	-37
▁un	-38
▁h	-39
us	-40
▁S	-41
ge	-42
ent	-43
▁of	-44
ro	-45
▁n	-46
▁v	-47
ing	-48
ung	-49
▁and	-50
▁to	-51
▁A	-52
ll	-53
ed	-54
▁die	-55
om	-56
▁der	-57
▁und	-58
▁E	-59
▁I	-60
ig	-61
st	-62
ic	-63
▁be	-64
▁M	-65
▁is	-66
▁D	-67
▁T	-68
▁B	-69
▁ein	-70
▁P	-71
ir	-72
▁z	-73
im	-74
▁g	-75
el	-76
ut	-77
ra	-78
ter	-79
em	-80
il	-81
▁W	-82
ten	-83
ol	-84
ation	-85
der	-86
eit	-87
et	-88
▁F	-89
▁l	-90
am	-91
den	-92
▁re	-93
▁G	-94
hr	-95
ies	-96
um	-97
op	-98
▁K	-99
ct	-100
▁H	-101
sch	-102
▁R	-103
▁k	-104
ul	-105
uf	-106
▁C	-107
ber	-108
iv	-109
de	-110
lich	-111
▁V	-112
▁for	-113
ab	-114
ot	-115
ür	-116
isch	-117
ier	-118
icht	-119
gen	-120
▁Th	-121
▁on	-122
▁das	-123
▁zu	-124
▁L	-125
ere	-126
▁den	-127
ly	-128
ess	-129
est	-130
▁that	-131
os	-132
and	-133
id	-134
▁U	-135
ce	-136
omm	-137
ein	-138
ers	-139
▁pro	-140
▁al	-141
ow	-142
▁wh	-143
ach	-144
▁von	-145
▁r	-146
ort	-147
▁ge	-148
▁im	-149
uch	-150
▁st	-151
▁y	-152
ith	-153
▁In	-154
▁wir	-155
kt	-156
▁N	-157
if	-158
▁con	-159
▁ist	-160
▁ver	-161
▁er	-162
ver	-163
▁with	-164
▁auf	-165
▁we	-166
▁für	-167
urop	-168
ay	-169
ill	-170
▁des	-171
▁are	-172
▁it	-173
ve	-174
▁mit	-175
ad	-176
ts	-177
▁1	-178
▁Z	-179
ind	-180
▁as	-181
ck	-182
▁so	-183
▁The	-184
▁de	-185
▁ne	-186
iss	-187
▁(	-188
▁yo	-189
▁dies	-190
▁St	-191
end	-192
af	-193
▁Europ	-194
pp	-195
ate	-196
ment	-197
ik	-198
th	-199
▁se	-200
▁2	-201
qu	-202
ist	-203
ungen	-204
la	-205
00	-206
ischen	-207
▁Un	-208
nen	-209
men	-210
ib	-211
▁Ver	-212
▁als	-213
ust	-214
▁eine	-215
ak	-216
ant	-217
▁ex	-218
ne	-219
▁dem	-220
for	-221
▁this	-222
ah	-223
ity	-224
▁O	-225
▁ha	-226
ien	-227
ive	-228
ial	-229
▁An	-230
▁Sie	-231
▁j	-232
▁or	-233
▁nicht	-234
art	-235
▁J	-236
pe	-237
▁wer	-238
ug	-239
und	-240
▁co	-241
▁not	-242
ann	-243
über	-244
ste	-245
▁-	-246
▁sich	-247
▁all	-248
▁le	-249
än	-250
ub	-251
ff	-252
▁werden	-253
tel	-254
▁Re	-255
we	-256
▁by	-257
▁have	-258
▁dass	-259
rom	-260
igen	-261
ag	-262
▁at	-263
igh	-264
▁es	-265
ens	-266
ass	-267
ain	-268
▁aus	-269
all	-270
▁Die	-271
▁you	-272
uld	-273
▁sh	-274
sp	-275
▁will	-276
up	-277
▁ab	-278
▁com	-279
od	-280
ern	-281
▁uns	-282
iel	-283
▁über	-284
aus	-285
▁i	-286
ure	-287
▁me	-288
ions	-289
ze	-290
age	-291
ran	-292
▁which	-293
▁Pr	-294
ommiss	-295
ted	-296
▁was	-297
▁auch	-298
▁Sch	-299
ben	-300
lie	-301
..	-302
▁from	-303
ahr	-304
▁Europe	-305
hal	-306
hen	-307
ungs	-308
du	-309
och	-310
▁Be	-311
ard	-312
▁um	-313
ould	-314
▁We	-315
▁sind	-316
▁sch	-317
▁us	-318
tern	-319
tr	-320
▁Pro	-321
▁ch	-322
ommission	-323
ident	-324
▁pr	-325
og	-326
▁ent	-327
▁vor	-328
▁wird	-329
fer	-330
▁En	-331
esch	-332
▁has	-333
uss	-334
ue	-335
▁hab	-336
iz	-337
schaf	-338
ip	-339
mer	-340
ft	-341
port	-342
▁wor	-343
ine	-344
ön	-345
ss	-346
gr	-347
▁res	-348
▁en	-349
ud	-350
llen	-351
ang	-352
oc	-353
ous	-354
ische	-355
▁Er	-356
ok	-357
ick	-358
▁da	-359
▁wie	-360
enn	-361
▁Par	-362
ast	-363
ät	-364
our	-365
▁he	-366
urch	-367
able	-368
me	-369
▁can	-370
▁man	-371
ise	-372
etz	-373
▁am	-374
err	-375
form	-376
ire	-377
ige	-378
keit	-379
▁hat	-380
▁ich	-381
▁sein	-382
▁Ar	-383
ap	-384
pr	-385
ost	-386
▁our	-387
▁oder	-388
ert	-389
ore	-390
ament	-391
otel	-392
ia	-393
be	-394
cc	-395
erv	-396
▁comp	-397
ult	-398
▁zur	-399
▁also	-400
▁European	-401
beit	-402
ations	-403
▁sie	-404
▁haben	-405
▁"	-406
ational	-407
ction	-408
ru	-409
▁Mit	-410
heit	-411
ical	-412
▁ad	-413
ition	-414
ish	-415
lichen	-416
▁Aus	-417
ese	-418
he	-419
ice	-420
out	-421
are	-422
ated	-423
lo	-424
▁Ein	-425
dern	-426
▁bei	-427
▁do	-428
▁kön	-429
▁einer	-430
ome	-431
olit	-432
se	-433
rit	-434
aten	-435
tz	-436
▁Wir	-437
hl	-438
▁200	-439
ther	-440
ark	-441
▁Ge	-442
ord	-443
pt	-444
fü	-445
ieren	-446
▁unter	-447
ect	-448
ün	-449
▁nach	-450
▁einen	-451
ac	-452
her	-453
▁Parl	-454
ht	-455
schaft	-456
▁qu	-457
ign	-458
är	-459
ms	-460
▁part	-461
iert	-462
tet	-463
elt	-464
▁Union	-465
ight	-466
▁your	-467
▁its	-468
oun	-469
ates	-470
vel	-471
ake	-472
▁te	-473
tra	-474
▁Das	-475
ear	-476
▁reg	-477
ite	-478
▁durch	-479
▁gro	-480
au	-481
ank	-482
ian	-483
▁Fra	-484
ger	-485
▁Ber	-486
▁su	-487
yste	-488
▁It	-489
ember	-490
▁sp	-491
fen	-492
▁ro	-493
ide	-494
▁but	-495
oll	-496
▁ag	-497
▁wur	-498
cial	-499
▁können	-500
▁there	-501
▁Ich	-502
▁Ab	-503
▁go	-504
ary	-505
▁Vor	-506
gt	-507
▁Mr	-508
liche	-509
per	-510
äs	-511
con	-512
▁app	-513
▁3	-514
ose	-515
ör	-516
hre	-517
▁dar	-518
▁ste	-519
anz	-520
▁EU	-521
▁Herr	-522
cht	-523
▁war	-524
▁Commission	-525
▁tra	-526
▁19	-527
chen	-528
rie	-529
ual	-530
cl	-531
eren	-532
▁spe	-533
ime	-534
▁would	-535
▁mö	-536
ance	-537
▁more	-538
tw	-539
ail	-540
ov	-541
ile	-542
▁–	-543
▁zum	-544
▁their	-545
▁einem	-546
▁been	-547
ommen	-548
mp	-549
▁bes	-550
reat	-551
▁gen	-552
ute	-553
uß	-554
▁Al	-555
▁cont	-556
glich	-557
ase	-558
imm	-559
ame	-560
▁Europä	-561
chte	-562
▁ar	-563
ong	-564
act	-565
chn	-566
gra	-567
▁Te	-568
▁fin	-569
ild	-570
utz	-571
▁diese	-572
ück	-573
▁This	-574
▁kann	-575
oss	-576
▁one	-577
▁nur	-578
üss	-579
ack	-580
ble	-581
▁acc	-582
▁dis	-583
▁Le	-584
che	-585
ont	-586
one	-587
ugh	-588
▁De	-589
ents	-590
▁comm	-591
▁coun	-592
▁per	-593
▁Sp	-594
▁Unter	-595
▁Ch	-596
sten	-597
ges	-598
hn	-599
▁Auf	-600
▁bet	-601
▁alle	-602
▁Hotel	-603
gan	-604
▁should	-605
▁pl	-606
▁Gr	-607
▁work	-608
...	-609
▁.	-610
wer	-611
ahl	-612
▁,	-613
lic	-614
ution	-615
ike	-616
ierung	-617
▁new	-618
▁Der	-619
geb	-620
▁up	-621
eine	-622
▁cl	-623
ob	-624
▁Se	-625
hren	-626
hmen	-627
ely	-628
ree	-629
zu	-630
▁Jahr	-631
▁For	-632
äsident	-633
land	-634
▁dieser	-635
igkeit	-636
auf	-637
ktion	-638
▁out	-639
av	-640
▁ob	-641
▁Pres	-642
ld	-643
ner	-644
olle	-645
to	-646
reich	-647
ons	-648
pl	-649
▁very	-650
▁jed	-651
▁pre	-652
▁countr	-653
▁ind	-654
▁Es	-655
▁daß	-656
▁who	-657
▁must	-658
▁inter	-659
▁Dies	-660
▁zw	-661
ings	-662
▁produ	-663
▁noch	-664
ke	-665
▁Kommission	-666
ähr	-667
bar	-668
▁other	-669
ities	-670
▁ma	-671
formation	-672
▁ev	-673
▁need	-674
▁pe	-675
ink	-676
▁weit	-677
gram	-678
▁they	-679
mit	-680
ces	-681
pro	-682
wo	-683
ater	-684
ors	-685
▁wurde	-686
ments	-687
▁only	-688
▁no	-689
tell	-690
▁ber	-691
▁fe	-692
▁intern	-693
schen	-694
▁soll	-695
rat	-696
▁supp	-697
▁mehr	-698
▁bec	-699
▁year	-700
▁str	-701
▁aber	-702
ange	-703
▁like	-704
▁President	-705
▁cons	-706
ple	-707
▁wenn	-708
oin	-709
ystem	-710
▁about	-711
üssen	-712
▁5	-713
olog	-714
▁Präsident	-715
▁time	-716
glie	-717
▁polit	-718
teil	-719
fe	-720
pos	-721
entr	-722
▁4	-723
ible	-724
erm	-725
▁any	-726
ious	-727
▁prov	-728
▁Y	-729
leich	-730
).	-731
▁sehr	-732
ced	-733
▁ges	-734
uen	-735
▁müssen	-736
xt	-737
lin	-738
▁Reg	-739
assen	-740
gel	-741
▁tran	-742
velop	-743
ally	-744
enz	-745
ry	-746
ject	-747
ität	-748
cess	-749
▁wo	-750
nah	-751
▁unser	-752
▁eff	-753
alt	-754
▁sow	-755
▁ra	-756
hnen	-757
iament	-758
ütz	-759
ammen	-760
▁these	-761
arbeit	-762
onder	-763
▁Arbeit	-764
ient	-765
▁rec	-766
▁Parlament	-767
▁serv	-768
▁dire	-769
▁Member	-770
io	-771
▁off	-772
fore	-773
▁sol	-774
own	-775
▁import	-776
▁Mitglie	-777
atz	-778
ied	-779
ans	-780
▁vie	-781
led	-782
usammen	-783
ular	-784
ibt	-785
fahr	-786
▁hin	-787
ility	-788
▁diesem	-789
irst	-790
ring	-791
▁So	-792
stit	-793
äl	-794
ople	-795
ause	-796
erson	-797
ider	-798
▁Men	-799
als	-800
ßen	-801
aaten	-802
ures	-803
▁gegen	-804
ph	-805
▁if	-806
igt	-807
halten	-808
▁Um	-809
fol	-810
▁develop	-811
ism	-812
ook	-813
wend	-814
▁such	-815
▁la	-816
cy	-817
fl	-818
änd	-819
▁ihre	-820
▁report	-821
▁Europäischen	-822
ays	-823
unden	-824
sche	-825
▁act	-826
wn	-827
iger	-828
▁pol	-829
etzt	-830
▁Ma	-831
▁sub	-832
▁gr	-833
▁my	-834
iven	-835
▁bis	-836
ateg	-837
ative	-838
ific	-839
▁ins	-840
▁over	-841
dition	-842
▁Zeit	-843
ale	-844
▁rel	-845
▁Parliament	-846
ks	-847
▁20	-848
▁people	-849
▁were	-850
▁gew	-851
itu	-852
nehmen	-853
▁ihr	-854
▁into	-855
führ	-856
▁Ne	-857
▁Ü	-858
iden	-859
kte	-860
cre	-861
ken	-862
str	-863
▁international	-864
▁gem	-865
ices	-866
▁well	-867
▁As	-868
erg	-869
),	-870
▁some	-871
▁best	-872
▁viel	-873
ement	-874
▁möchte	-875
acht	-876
lung	-877
▁use	-878
enden	-879
isten	-880
bs	-881
cil	-882
▁what	-883
▁inv	-884
arge	-885
conom	-886
▁Mar	-887
▁Mitglied	-888
▁mark	-889
▁hier	-890
▁dif	-891
▁sa	-892
▁States	-893
ene	-894
▁Or	-895
fr	-896
▁high	-897
icher	-898
▁eines	-899
▁her	-900
▁Coun	-901
▁Über	-902
rei	-903
▁hotel	-904
▁kn	-905
▁Im	-906
▁first	-907
very	-908
uropä	-909
▁bed	-910
ou	-911
amen	-912
ull	-913
▁loc	-914
ory	-915
wor	-916
▁countries	-917
zeit	-918
▁most	-919
▁than	-920
▁Me	-921
ention	-922
olitik	-923
▁incl	-924
▁lie	-925
▁wicht	-926
▁when	-927
▁vom	-928
▁hel	-929
▁tr	-930
pect	-931
iet	-932
▁his	-933
ating	-934
▁dec	-935
inn	-936
▁Kon	-937
esent	-938
ace	-939
▁under	-940
itte	-941
▁partic	-942
▁Council	-943
▁them	-944
▁vers	-945
ards	-946
▁Q	-947
▁just	-948
les	-949
ages	-950
itz	-951
▁He	-952
▁dam	-953
▁Entw	-954
▁Menschen	-955
ett	-956
▁again	-957
ond	-958
▁polic	-959
▁sowie	-960
sicht	-961
▁important	-962
▁wel	-963
▁support	-964
▁ele	-965
att	-966
▁now	-967
ats	-968
▁make	-969
▁Bericht	-970
tre	-971
▁europä	-972
änder	-973
▁bas	-974
ween	-975
abe	-976
▁Land	-977
lä	-978
▁gu	-979
els	-980
▁pla	-981
▁aut	-982
▁dieses	-983
äch	-984
ights	-985
▁gibt	-986
halt	-987
kl	-988
▁room	-989
▁between	-990
essen	-991
ues	-992
▁econom	-993
▁how	-994
ho	-995
▁many	-996
kommen	-997
stütz	-998
fin	-999
▁Nach	-1000
▁Comm	-1001
wir	-1002
halb	-1003
▁requ	-1004
▁ass	-1005
▁propos	-1006
▁mo	-1007
any	-1008
je	-1009
ives	-1010
▁fr	-1011
hand	-1012
issen	-1013
fter	-1014
▁techn	-1015
▁6	-1016
▁because	-1017
oth	-1018
ural	-1019
igung	-1020
▁poss	-1021
ence	-1022
ös	-1023
▁zwischen	-1024
bst	-1025
ließ	-1026
staaten	-1027
▁Bed	-1028
▁'	-1029
▁take	-1030
▁leg	-1031
ware	-1032
▁Verb	-1033
ters	-1034
▁fre	-1035
öglich	-1036
▁market	-1037
▁world	-1038
▁kon	-1039
uer	-1040
legen	-1041
▁Pl	-1042
zie	-1043
ote	-1044
tschaft	-1045
arm	-1046
▁Entwick	-1047
▁bereit	-1048
▁Fl	-1049
▁pos	-1050
ublic	-1051
dr	-1052
▁Ent	-1053
ful	-1054
▁cre	-1055
zial	-1056
mal	-1057
min	-1058
ever	-1059
▁find	-1060
ath	-1061
cted	-1062
▁fo	-1063
off	-1064
rough	-1065
▁sel	-1066
oint	-1067
▁muss	-1068
▁op	-1069
blem	-1070
ict	-1071
▁Intern	-1072
▁national	-1073
weit	-1074
▁son	-1075
hör	-1076
ount	-1077
▁min	-1078
▁unsere	-1079
amp	-1080
ality	-1081
▁Ges	-1082
dit	-1083
lear	-1084
▁keine	-1085
▁par	-1086
▁All	-1087
omp	-1088
▁where	-1089
eschä	-1090
dem	-1091
▁av	-1092
▁good	-1093
nis	-1094
rag	-1095
▁nat	-1096
▁Ihre	-1097
▁Art	-1098
▁two	-1099
vern	-1100
▁great	-1101
▁bie	-1102
▁US	-1103
▁information	-1104
urn	-1105
▁emp	-1106
uring	-1107
▁Min	-1108
▁„	-1109
▁Ihnen	-1110
▁hand	-1111
▁verb	-1112
▁every	-1113
öff	-1114
▁Produ	-1115
▁Grund	-1116
rauch	-1117
rä	-1118
▁years	-1119
ße	-1120
achen	-1121
▁einz	-1122
stand	-1123
▁made	-1124
▁rem	-1125
▁had	-1126
▁anderen	-1127
hm	-1128
▁conc	-1129
amil	-1130
▁end	-1131
▁even	-1132
eln	-1133
cept	-1134
rol	-1135
aut	-1136
ium	-1137
unkt	-1138
▁mein	-1139
▁product	-1140
▁199	-1141
▁system	-1142
▁Europa	-1143
▁iss	-1144
▁get	-1145
▁ange	-1146
▁through	-1147
▁If	-1148
fort	-1149
schie	-1150
▁Zusammen	-1151
▁Ä	-1152
▁way	-1153
laub	-1154
lish	-1155
air	-1156
▁those	-1157
▁see	-1158
ession	-1159
▁Fin	-1160
chten	-1161
gend	-1162
ischer	-1163
▁Mitgliedstaaten	-1164
forder	-1165
ision	-1166
ereich	-1167
▁Rat	-1168
▁7	-1169
gung	-1170
ister	-1171
▁sc	-1172
▁weiter	-1173
geben	-1174
▁Am	-1175
ren	-1176
ws	-1177
stell	-1178
ower	-1179
ält	-1180
ußer	-1181
immer	-1182
weise	-1183
▁immer	-1184
day	-1185
ys	-1186
▁Seit	-1187
ows	-1188
lick	-1189
lag	-1190
unity	-1191
▁direct	-1192
▁order	-1193
ganis	-1194
▁[	-1195
▁disc	-1196
erein	-1197
▁policy	-1198
ument	-1199
ina	-1200
▁may	-1201
spr	-1202
▁ac	-1203
ster	-1204
▁dann	-1205
uman	-1206
▁Wenn	-1207
hne	-1208
▁tak	-1209
▁10	-1210
▁right	-1211
rif	-1212
▁8	-1213
▁Ex	-1214
▁“	-1215
isen	-1216
▁num	-1217
▁beg	-1218
▁being	-1219
▁ke	-1220
ituation	-1221
chts	-1222
▁Vorsch	-1223
ital	-1224
ivers	-1225
▁beste	-1226
alls	-1227
▁Bes	-1228
▁diesen	-1229
▁fact	-1230
▁rest	-1231
▁wieder	-1232
ited	-1233
▁Wh	-1234
▁cent	-1235
eration	-1236
000	-1237
nahmen	-1238
▁There	-1239
▁damit	-1240
▁cour	-1241
▁appro	-1242
▁belie	-1243
▁trans	-1244
▁car	-1245
ionen	-1246
▁differ	-1247
gest	-1248
▁particular	-1249
com	-1250
aur	-1251
▁On	-1252
nung	-1253
▁ger	-1254
ior	-1255
▁Bereich	-1256
▁process	-1257
▁includ	-1258
▁wurden	-1259
▁Haus	-1260
▁zwe	-1261
▁ganz	-1262
icherheit	-1263
eins	-1264
isse	-1265
▁Gro	-1266
▁fü	-1267
bal	-1268
istr	-1269
▁Welt	-1270
▁Frau	-1271
vor	-1272
▁own	-1273
▁gesch	-1274
itt	-1275
part	-1276
innen	-1277
▁resp	-1278
iness	-1279
ough	-1280
▁mon	-1281
▁Des	-1282
▁del	-1283
adt	-1284
ade	-1285
▁know	-1286
zeich	-1287
get	-1288
▁main	-1289
trag	-1290
▁Diese	-1291
ouse	-1292
▁cur	-1293
read	-1294
▁bus	-1295
sel	-1296
old	-1297
atter	-1298
gramm	-1299
ändern	-1300
▁area	-1301
10	-1302
▁Ihr	-1303
▁At	-1304
hin	-1305
▁exp	-1306
stitution	-1307
▁Con	-1308
ler	-1309
zen	-1310
▁quest	-1311
▁bu	-1312
itä	-1313
elle	-1314
▁ph	-1315
oy	-1316
▁real	-1317
▁...	-1318
▁unserer	-1319
ool	-1320
▁Hand	-1321
▁agre	-1322
az	-1323
▁kein	-1324
▁9	-1325
schieden	-1326
alk	-1327
▁sm	-1328
rechen	-1329
▁Geb	-1330
▁here	-1331
round	-1332
▁sondern	-1333
▁habe	-1334
ix	-1335
▁comple	-1336
▁help	-1337
eld	-1338
ince	-1339
▁Gem	-1340
▁Zu	-1341
▁You	-1342
gesch	-1343
schafts	-1344
eth	-1345
▁Her	-1346
▁place	-1347
▁after	-1348
▁seine	-1349
▁Inter	-1350
▁stand	-1351
piel	-1352
urs	-1353
▁political	-1354
ests	-1355
▁deb	-1356
ruck	-1357
▁jedoch	-1358
▁gut	-1359
ved	-1360
▁incre	-1361
▁form	-1362
leg	-1363
▁Europäische	-1364
▁public	-1365
▁ide	-1366
ax	-1367
▁same	-1368
▁Information	-1369
▁wür	-1370
tegr	-1371
▁Bür	-1372
▁ausge	-1373
▁prote	-1374
▁possible	-1375
▁concern	-1376
ende	-1377
▁etw	-1378
mittel	-1379
▁sim	-1380
ktiv	-1381
▁Bar	-1382
▁ser	-1383
▁Ind	-1384
ently	-1385
öglichkeit	-1386
ierte	-1387
▁want	-1388
ines	-1389
fach	-1390
iron	-1391
▁clear	-1392
schließ	-1393
ata	-1394
▁human	-1395
▁Fre	-1396
▁heute	-1397
eral	-1398
▁bef	-1399
bens	-1400
tens	-1401
▁could	-1402
▁neue	-1403
line	-1404
▁Br	-1405
lagen	-1406
▁number	-1407
▁Ste	-1408
▁dr	-1409
use	-1410
▁est	-1411
nder	-1412
▁person	-1413
▁does	-1414
▁gleich	-1415
▁contin	-1416
ics	-1417
▁opp	-1418
▁Teil	-1419
▁then	-1420
isk	-1421
▁say	-1422
ertain	-1423
ven	-1424
uro	-1425
▁offer	-1426
▁15	-1427
ants	-1428
▁Kolle	-1429
ßnahmen	-1430
iti	-1431
▁Unternehmen	-1432
▁development	-1433
▁mich	-1434
▁avail	-1435
▁transp	-1436
▁wen	-1437
▁against	-1438
▁Str	-1439
▁selbst	-1440
▁effect	-1441
tellt	-1442
ander	-1443
▁Schl	-1444
ustr	-1445
▁Änder	-1446
▁within	-1447
▁Fran	-1448
alen	-1449
osten	-1450
▁Fr	-1451
raft	-1452
▁lang	-1453
▁rights	-1454
▁used	-1455
▁bereits	-1456
erk	-1457
ähl	-1458
▁Pre	-1459
▁fest	-1460
ma	-1461
lage	-1462
▁ohne	-1463
▁Entwicklung	-1464
▁economic	-1465
▁How	-1466
▁exam	-1467
▁much	-1468
▁therefore	-1469
▁fund	-1470
aup	-1471
▁val	-1472
bes	-1473
▁Bet	-1474
yp	-1475
ustom	-1476
▁vis	-1477
utions	-1478
ierten	-1479
hip	-1480
icult	-1481
▁sur	-1482
▁both	-1483
erung	-1484
▁wichtig	-1485
stru	-1486
▁ihrer	-1487
▁med	-1488
▁prof	-1489
lobal	-1490
▁europäischen	-1491
▁region	-1492
ife	-1493
▁Germ	-1494
▁sollte	-1495
▁Is	-1496
▁sign	-1497
ständ	-1498
setz	-1499
▁level	-1500
entlich	-1501
▁Man	-1502
ftware	-1503
loy	-1504
▁neuen	-1505
fern	-1506
▁var	-1507
▁fun	-1508
▁Wie	-1509
▁equ	-1510
ulation	-1511
ock	-1512
viron	-1513
ep	-1514
que	-1515
äre	-1516
▁play	-1517
▁bring	-1518
▁provid	-1519
▁pra	-1520
br	-1521
▁full	-1522
satz	-1523
▁hist	-1524
▁Richt	-1525
▁cr	-1526
▁Jahren	-1527
ivid	-1528
▁andere	-1529
▁bo	-1530
ds	-1531
ux	-1532
▁Vers	-1533
urg	-1534
▁Hin	-1535
öß	-1536
▁denn	-1537
eng	-1538
▁finan	-1539
reichen	-1540
▁letz	-1541
fahren	-1542
way	-1543
ically	-1544
wert	-1545
agement	-1546
▁country	-1547
▁18	-1548
cur	-1549
▁eigen	-1550
▁zwei	-1551
▁bre	-1552
▁social	-1553
net	-1554
aff	-1555
▁without	-1556
▁view	-1557
▁group	-1558
▁think	-1559
wick	-1560
▁Kl	-1561
▁still	-1562
▁conf	-1563
under	-1564
its	-1565
gar	-1566
▁point	-1567
ittee	-1568
iver	-1569
▁last	-1570
▁Sicherheit	-1571
vironment	-1572
kun	-1573
▁ens	-1574
eut	-1575
▁finden	-1576
▁12	-1577
licher	-1578
work	-1579
kehr	-1580
▁denen	-1581
▁exper	-1582
äng	-1583
ichte	-1584
mb	-1585
▁meas	-1586
▁Fe	-1587
▁Gen	-1588
▁services	-1589
▁oper	-1590
▁möglich	-1591
▁Mon	-1592
par	-1593
▁different	-1594
ets	-1595
over	-1596
vers	-1597
▁sollten	-1598
▁consider	-1599
▁Part	-1600
▁Frage	-1601
wort	-1602
ffen	-1603
▁access	-1604
esse	-1605
immt	-1606
▁opt	-1607
▁gemeins	-1608
▁priv	-1609
ährend	-1610
nahme	-1611
zeug	-1612
▁available	-1613
▁spec	-1614
esen	-1615
ationen	-1616
entral	-1617
▁long	-1618
▁mod	-1619
res	-1620
▁down	-1621
▁govern	-1622
▁prin	-1623
ohl	-1624
ondere	-1625
▁Bürger	-1626
▁Person	-1627
fra	-1628
ritt	-1629
ollow	-1630
hol	-1631
▁back	-1632
▁require	-1633
ope	-1634
▁ers	-1635
▁att	-1636
▁unterstütz	-1637
ists	-1638
▁verschieden	-1639
man	-1640
uture	-1641
atur	-1642
hor	-1643
ness	-1644
ude	-1645
▁cap	-1646
aking	-1647
ER	-1648
▁Tra	-1649
▁able	-1650
richt	-1651
ize	-1652
orte	-1653
▁gel	-1654
▁Daten	-1655
▁free	-1656
yn	-1657
▁business	-1658
▁kle	-1659
war	-1660
iß	-1661
alth	-1662
▁adv	-1663
▁custom	-1664
ibility	-1665
akt	-1666
ised	-1667
▁bietet	-1668
▁small	-1669
pf	-1670
▁curr	-1671
urther	-1672
▁Kont	-1673
ability	-1674
▁special	-1675
ience	-1676
▁Dem	-1677
ting	-1678
▁allen	-1679
▁look	-1680
ppen	-1681
▁liegt	-1682
ienst	-1683
▁ben	-1684
▁dazu	-1685
ystems	-1686
▁before	-1687
ispiel	-1688
zahl	-1689
ready	-1690
▁Kommiss	-1691
ins	-1692
▁weil	-1693
▁future	-1694
gem	-1695
▁Aut	-1696
▁pers	-1697
▁machen	-1698
afür	-1699
▁ze	-1700
ator	-1701
▁Mittel	-1702
▁bek	-1703
loss	-1704
▁viele	-1705
▁aller	-1706
press	-1707
ders	-1708
ward	-1709
une	-1710
ahre	-1711
▁believe	-1712
ahmen	-1713
ilt	-1714
▁air	-1715
▁som	-1716
tem	-1717
ktur	-1718
cond	-1719
▁hal	-1720
▁open	-1721
annt	-1722
▁already	-1723
jor	-1724
▁course	-1725
▁cor	-1726
ctions	-1727
▁gest	-1728
ctor	-1729
▁design	-1730
gramme	-1731
▁jetzt	-1732
▁today	-1733
aben	-1734
zug	-1735
agen	-1736
welt	-1737
▁products	-1738
▁cann	-1739
]]	-1740
▁But	-1741
äh	-1742
▁könn	-1743
ased	-1744
▁set	-1745
▁service	-1746
▁größ	-1747
kten	-1748
ismus	-1749
▁seiner	-1750
▁Möglichkeit	-1751
▁darauf	-1752
▁Stand	-1753
ves	-1754
▁That	-1755
▁Lage	-1756
ante	-1757
cr	-1758
▁inst	-1759
▁Them	-1760
aher	-1761
esell	-1762
▁Finanz	-1763
itiz	-1764
▁project	-1765
▁eing	-1766
▁fl	-1767
▁cannot	-1768
▁Ziel	-1769
▁To	-1770
äß	-1771
omen	-1772
▁Ro	-1773
öl	-1774
▁et	-1775
ving	-1776
▁environment	-1777
aterial	-1778
▁geht	-1779
▁too	-1780
▁mir	-1781
▁respons	-1782
▁geb	-1783
nisse	-1784
curity	-1785
hält	-1786
▁Rahmen	-1787
ron	-1788
▁einfach	-1789
imin	-1790
▁fac	-1791
▁data	-1792
mar	-1793
▁redu	-1794
ica	-1795
▁Med	-1796
zus	-1797
come	-1798
▁certain	-1799
▁bin	-1800
tend	-1801
okrat	-1802
▁bro	-1803
▁Maßnahmen	-1804
▁seit	-1805
other	-1806
▁schon	-1807
▁0	-1808
▁Informationen	-1809
▁Mein	-1810
▁follow	-1811
▁offers	-1812
▁prev	-1813
olution	-1814
lease	-1815
▁And	-1816
▁int	-1817
chie	-1818
▁case	-1819
▁regard	-1820
▁neg	-1821
ately	-1822
▁Energ	-1823
▁fra	-1824
tain	-1825
co	-1826
operation	-1827
▁Verein	-1828
▁&	-1829
▁put	-1830
ätz	-1831
▁voll	-1832
iber	-1833
iving	-1834
los	-1835
olid	-1836
▁[[	-1837
▁individ	-1838
ars	-1839
▁eas	-1840
▁einige	-1841
affen	-1842
klär	-1843
red	-1844
▁impro	-1845
▁financial	-1846
▁kl	-1847
▁dafür	-1848
orn	-1849
▁Rechts	-1850
▁Herrn	-1851
raph	-1852
ccess	-1853
▁art	-1854
▁Gemein	-1855
▁ter	-1856
▁Pol	-1857
▁Tran	-1858
▁repr	-1859
ungsant	-1860
isierung	-1861
▁Internet	-1862
▁je	-1863
ified	-1864
▁Commissioner	-1865
▁öff	-1866
▁question	-1867
▁citiz	-1868
imes	-1869
▁city	-1870
▁ihren	-1871
ually	-1872
ervice	-1873
▁integr	-1874
ilit	-1875
allen	-1876
▁posit	-1877
▁during	-1878
abei	-1879
ential	-1880
folg	-1881
▁%	-1882
eich	-1883
▁imple	-1884
▁reas	-1885
▁change	-1886
grund	-1887
▁Aussch	-1888
llt	-1889
▁prom	-1890
üh	-1891
ichten	-1892
▁Amer	-1893
ahn	-1894
lex	-1895
▁day	-1896
▁rev	-1897
▁Jahre	-1898
utes	-1899
▁Bei	-1900
▁large	-1901
▁allem	-1902
▁Zimmer	-1903
▁zurück	-1904
▁Stadt	-1905
▁Russ	-1906
anden	-1907
▁nun	-1908
▁said	-1909
▁invest	-1910
▁problem	-1911
▁Wor	-1912
ucht	-1913
inen	-1914
amm	-1915
▁stat	-1916
▁issue	-1917
scheid	-1918
▁fol	-1919
▁deut	-1920
▁activ	-1921
▁saf	-1922
iele	-1923
▁ask	-1924
▁imp	-1925
200	-1926
EN	-1927
ove	-1928
▁applic	-1929
▁major	-1930
▁el	-1931
ways	-1932
▁energ	-1933
ünd	-1934
▁means	-1935
cing	-1936
▁global	-1937
▁meine	-1938
uchen	-1939
▁2009	-1940
▁achie	-1941
ichter	-1942
20	-1943
bsite	-1944
▁quality	-1945
▁proposal	-1946
▁zusammen	-1947
▁far	-1948
äm	-1949
▁Für	-1950
▁Uns	-1951
▁since	-1952
aum	-1953
ily	-1954
▁entsp	-1955
ather	-1956
lossen	-1957
▁Sh	-1958
▁member	-1959
▁cost	-1960
nov	-1961
▁famil	-1962
▁meet	-1963
▁Als	-1964
lichkeit	-1965
besondere	-1966
▁modern	-1967
gress	-1968
isl	-1969
▁example	-1970
kunft	-1971
ether	-1972
halts	-1973
ird	-1974
iend	-1975
▁rooms	-1976
ites	-1977
▁However	-1978
▁present	-1979
aupt	-1980
▁necess	-1981
▁besch	-1982
antwort	-1983
punkt	-1984
eschäft	-1985
heiten	-1986
reib	-1987
ized	-1988
▁strateg	-1989
▁unseren	-1990
▁würde	-1991
▁besonder	-1992
illion	-1993
unter	-1994
▁gef	-1995
▁Kin	-1996
ktionen	-1997
aat	-1998
▁debate	-1999
▁adop	-2000
▁Bo	-2001
▁Ö	-2002
amer	-2003
▁Go	-2004
▁contr	-2005
▁Kommissar	-2006
▁Our	-2007
▁Spe	-2008
▁Pal	-2009
führt	-2010
▁Gew	-2011
haf	-2012
▁verfü	-2013
ash	-2014
leist	-2015
▁sicher	-2016
udget	-2017
▁che	-2018
org	-2019
▁situation	-2020
▁eng	-2021
▁Ad	-2022
fts	-2023
▁pass	-2024
ilities	-2025
▁common	-2026
▁Eine	-2027
pre	-2028
ule	-2029
oren	-2030
angen	-2031
blems	-2032
▁citizens	-2033
▁technolog	-2034
▁wollen	-2035
immung	-2036
tellen	-2037
▁gar	-2038
▁three	-2039
etzen	-2040
▁power	-2041
▁Arbeits	-2042
▁einge	-2043
▁Ph	-2044
omat	-2045
▁With	-2046
▁child	-2047
▁each	-2048
▁Best	-2049
▁compet	-2050
▁amend	-2051
reit	-2052
fass	-2053
▁Wer	-2054
vention	-2055
▁colle	-2056
▁including	-2057
▁Ger	-2058
aurant	-2059
▁Eng	-2060
▁ref	-2061
▁etwas	-2062
▁Parlaments	-2063
gew	-2064
ining	-2065
▁areas	-2066
ache	-2067
ablish	-2068
cip	-2069
▁während	-2070
▁rece	-2071
ell	-2072
▁stehen	-2073
▁Gesch	-2074
▁allow	-2075
▁Euro	-2076
▁Form	-2077
▁Committee	-2078
▁object	-2079
▁respect	-2080
▁Ur	-2081
▁Politik	-2082
▁stay	-2083
▁Bild	-2084
ipp	-2085
▁few	-2086
oten	-2087
▁sagen	-2088
▁sozial	-2089
opp	-2090
linie	-2091
▁cult	-2092
▁/	-2093
▁Res	-2094
ains	-2095
▁30	-2096
tt	-2097
zw	-2098
bed	-2099
▁give	-2100
▁measures	-2101
▁result	-2102
▁next	-2103
genommen	-2104
asch	-2105
▁Und	-2106
▁Vorschlag	-2107
▁doch	-2108
▁discuss	-2109
▁democ	-2110
orth	-2111
▁stud	-2112
▁erst	-2113
▁found	-2114
▁ensure	-2115
gangen	-2116
▁erm	-2117
▁author	-2118
zept	-2119
ands	-2120
▁pres	-2121
▁provide	-2122
ugen	-2123
ürlich	-2124
▁thank	-2125
▁wissen	-2126
▁tun	-2127
▁energy	-2128
gleich	-2129
▁br	-2130
▁Länder	-2131
ordnung	-2132
▁further	-2133
uge	-2134
ught	-2135
▁organis	-2136
▁komm	-2137
iff	-2138
1.	-2139
▁kom	-2140
▁fil	-2141
▁success	-2142
ode	-2143
▁agreement	-2144
ination	-2145
▁Mill	-2146
rache	-2147
▁insbesondere	-2148
▁histor	-2149
▁grow	-2150
▁build	-2151
▁erhalten	-2152
▁Durch	-2153
In	-2154
▁außer	-2155
iate	-2156
▁dra	-2157
indet	-2158
▁control	-2159
▁Qu	-2160
▁cal	-2161
falls	-2162
stellung	-2163
unde	-2164
ziel	-2165
▁read	-2166
schaften	-2167
▁Unterstütz	-2168
▁Lös	-2169
▁taken	-2170
anken	-2171
agt	-2172
igin	-2173
▁establish	-2174
▁vo	-2175
▁employ	-2176
schl	-2177
▁position	-2178
▁einmal	-2179
▁Rest	-2180
▁Deut	-2181
gre	-2182
itor	-2183
▁mus	-2184
▁Bl	-2185
▁abs	-2186
▁pay	-2187
▁waren	-2188
▁addition	-2189
▁det	-2190
▁come	-2191
▁kommen	-2192
por	-2193
▁Verfü	-2194
gang	-2195
itäten	-2196
ek	-2197
ilfe	-2198
▁Kunden	-2199
trä	-2200
▁Ital	-2201
▁Zug	-2202
legt	-2203
igten	-2204
▁beim	-2205
ditions	-2206
▁China	-2207
ases	-2208
ohn	-2209
▁link	-2210
chnolog	-2211
▁ersten	-2212
▁opport	-2213
cken	-2214
▁Qual	-2215
▁Schw	-2216
ules	-2217
▁law	-2218
▁du	-2219
▁Group	-2220
▁schw	-2221
▁Fall	-2222
ums	-2223
▁verw	-2224
lungs	-2225
arte	-2226
▁Cl	-2227
igkeiten	-2228
politik	-2229
ling	-2230
▁Zusammenarbeit	-2231
▁Problem	-2232
uff	-2233
▁shall	-2234
bo	-2235
▁company	-2236
▁sk	-2237
▁pop	-2238
ross	-2239
▁Markt	-2240
▁ho	-2241
▁ä	-2242
▁necessary	-2243
jekt	-2244
ott	-2245
▁lassen	-2246
▁Mus	-2247
▁drei	-2248
rop	-2249
▁problems	-2250
ises	-2251
▁health	-2252
ichts	-2253
ising	-2254
▁Umwelt	-2255
pend	-2256
elf	-2257
arn	-2258
unic	-2259
ruct	-2260
arten	-2261
uten	-2262
▁inde	-2263
aren	-2264
▁em	-2265
▁key	-2266
▁princip	-2267
▁14	-2268
▁X	-2269
▁why	-2270
AT	-2271
umen	-2272
▁security	-2273
bau	-2274
esser	-2275
▁Unterstützung	-2276
glichen	-2277
iter	-2278
ements	-2279
▁25	-2280
▁given	-2281
▁Proble	-2282
▁wirk	-2283
▁invol	-2284
fre	-2285
utzen	-2286
▁hope	-2287
▁Spiel	-2288
▁terr	-2289
lungen	-2290
▁second	-2291
▁legisl	-2292
tschafts	-2293
▁ret	-2294
▁did	-2295
bewer	-2296
iety	-2297
▁Mad	-2298
▁located	-2299
fung	-2300
▁pract	-2301
ared	-2302
▁entwick	-2303
asse	-2304
lemen	-2305
▁verl	-2306
isation	-2307
▁La	-2308
▁geben	-2309
▁Stra	-2310
▁char	-2311
▁while	-2312
▁Dienst	-2313
▁wirtschaft	-2314
med	-2315
örder	-2316
gether	-2317
AN	-2318
burg	-2319
führung	-2320
fte	-2321
▁|	-2322
▁Änderungsant	-2323
▁groß	-2324
esellschaft	-2325
orgen	-2326
▁however	-2327
fang	-2328
▁budget	-2329
ively	-2330
spro	-2331
joy	-2332
▁Recht	-2333
▁life	-2334
▁lead	-2335
orm	-2336
▁besteht	-2337
text	-2338
▁Tr	-2339
▁always	-2340
urz	-2341
▁Namen	-2342
▁cooperation	-2343
▁bl	-2344
nell	-2345
schied	-2346
▁start	-2347
▁gra	-2348
▁begr	-2349
▁sehen	-2350
▁Da	-2351
▁Deb	-2352
▁ander	-2353
ctive	-2354
▁complete	-2355
IN	-2356
▁Sw	-2357
▁needs	-2358
▁wish	-2359
▁16	-2360
▁protection	-2361
▁führen	-2362
ES	-2363
▁tradition	-2364
zieh	-2365
von	-2366
wendung	-2367
▁Vol	-2368
wards	-2369
ury	-2370
ches	-2371
▁Geschä	-2372
▁Ko	-2373
▁Ländern	-2374
▁Port	-2375
▁ir	-2376
▁Tag	-2377
▁implement	-2378
tion	-2379
altung	-2380
▁writ	-2381
▁steht	-2382
▁beh	-2383
▁vote	-2384
▁They	-2385
▁sens	-2386
stellen	-2387
öt	-2388
ave	-2389
▁statt	-2390
▁Fragen	-2391
▁System	-2392
ogen	-2393
äd	-2394
ustrie	-2395
▁seinen	-2396
▁tre	-2397
▁diff	-2398
▁House	-2399
ppe	-2400
ald	-2401
▁17	-2402
licht	-2403
▁wäre	-2404
ried	-2405
dress	-2406
▁Beit	-2407
▁Not	-2408
▁interest	-2409
ference	-2410
▁Ob	-2411
▁comb	-2412
ca	-2413
ivil	-2414
▁Community	-2415
▁better	-2416
ettbewer	-2417
cell	-2418
▁inform	-2419
▁Besch	-2420
▁United	-2421
häng	-2422
▁mult	-2423
earch	-2424
▁akt	-2425
ty	-2426
kon	-2427
▁Red	-2428
ätze	-2429
kre	-2430
zü	-2431
ique	-2432
schein	-2433
▁Kollegen	-2434
▁letzten	-2435
arch	-2436
lect	-2437
▁Dar	-2438
▁Bel	-2439
▁net	-2440
▁Energie	-2441
▁action	-2442
▁men	-2443
▁gehör	-2444
▁muß	-2445
ölk	-2446
▁account	-2447
▁using	-2448
▁2008	-2449
▁2010	-2450
iod	-2451
▁Kr	-2452
by	-2453
▁glaub	-2454
▁Sk	-2455
alle	-2456
rechte	-2457
▁hö	-2458
zess	-2459
ikan	-2460
▁transport	-2461
ichterst	-2462
▁fav	-2463
▁legal	-2464
rodu	-2465
sequ	-2466
undheit	-2467
▁worden	-2468
▁sing	-2469
blick	-2470
▁Regierung	-2471
▁dabei	-2472
gaben	-2473
iation	-2474
bereich	-2475
▁Bedeut	-2476
▁ble	-2477
ierungs	-2478
▁Lebens	-2479
ämp	-2480
▁defin	-2481
enten	-2482
ialog	-2483
▁around	-2484
▁based	-2485
cher	-2486
▁fiel	-2487
▁Kom	-2488
ustry	-2489
rän	-2490
uft	-2491
iste	-2492
clus	-2493
▁reach	-2494
▁working	-2495
▁Mrs	-2496
▁met	-2497
▁cho	-2498
▁conne	-2499
gehen	-2500
▁große	-2501
eite	-2502
▁Ser	-2503
gabe	-2504
▁Entscheid	-2505
▁großen	-2506
▁What	-2507
ingungen	-2508
pecial	-2509
▁Gu	-2510
markt	-2511
▁mov	-2512
abil	-2513
▁Ergeb	-2514
▁Was	-2515
iges	-2516
genden	-2517
▁consum	-2518
ged	-2519
▁current	-2520
St	-2521
▁Bedeutung	-2522
of	-2523
obil	-2524
▁inner	-2525
▁13	-2526
▁deren	-2527
▁USA	-2528
gestellt	-2529
▁Seite	-2530
▁terms	-2531
▁Verfügung	-2532
▁Rom	-2533
▁whether	-2534
less	-2535
asser	-2536
ros	-2537
▁short	-2538
▁Hier	-2539
▁rep	-2540
ify	-2541
▁non	-2542
▁centre	-2543
▁production	-2544
▁become	-2545
▁50	-2546
offe	-2547
▁add	-2548
▁sl	-2549
▁lim	-2550
lev	-2551
▁Famil	-2552
▁welche	-2553
uments	-2554
▁less	-2555
hof	-2556
▁extre	-2557
▁rapp	-2558
eder	-2559
▁When	-2560
▁water	-2561
▁together	-2562
▁Aber	-2563
▁difficult	-2564
▁near	-2565
isher	-2566
▁24	-2567
▁crit	-2568
▁another	-2569
load	-2570
ervor	-2571
▁Fol	-2572
ferenz	-2573
racht	-2574
▁Kinder	-2575
▁Region	-2576
▁visit	-2577
▁Auch	-2578
▁bel	-2579
bild	-2580
▁These	-2581
druck	-2582
▁Tur	-2583
▁particularly	-2584
▁Beispiel	-2585
▁individual	-2586
▁zahl	-2587
bt	-2588
▁notwend	-2589
uter	-2590
immen	-2591
akes	-2592
▁(1	-2593
pecially	-2594
▁def	-2595
▁1.	-2596
▁contrib	-2597
▁100	-2598
iar	-2599
▁whole	-2600
▁care	-2601
▁öffent	-2602
▁book	-2603
▁International	-2604
osition	-2605
▁issues	-2606
ünst	-2607
▁Mal	-2608
▁dist	-2609
▁state	-2610
▁jeder	-2611
▁Schutz	-2612
▁clos	-2613
▁Ben	-2614
entrum	-2615
ots	-2616
▁trade	-2617
kauf	-2618
▁research	-2619
▁ear	-2620
▁rapporte	-2621
anies	-2622
▁tour	-2623
▁Vertrag	-2624
ultur	-2625
▁children	-2626
▁bene	-2627
bene	-2628
▁bieten	-2629
▁tax	-2630
▁him	-2631
▁beach	-2632
tellung	-2633
▁davon	-2634
astr	-2635
▁km	-2636
ames	-2637
▁darüber	-2638
ON	-2639
▁friend	-2640
ners	-2641
▁local	-2642
▁subject	-2643
▁Air	-2644
▁specific	-2645
iew	-2646
▁Bus	-2647
▁gegenüber	-2648
▁exist	-2649
xim	-2650
▁No	-2651
arante	-2652
▁reason	-2653
room	-2654
▁conditions	-2655
▁Regel	-2656
▁alles	-2657
▁call	-2658
kungen	-2659
▁UN	-2660
▁Thema	-2661
▁Gä	-2662
hö	-2663
orts	-2664
▁Berichterst	-2665
▁daher	-2666
▁Probleme	-2667
ufen	-2668
▁Wirtschafts	-2669
▁role	-2670
ckt	-2671
▁address	-2672
▁show	-2673
▁Service	-2674
▁2007	-2675
schutz	-2676
leit	-2677
fäh	-2678
▁accord	-2679
▁hervor	-2680
▁Weise	-2681
ength	-2682
▁erforder	-2683
▁San	-2684
ikel	-2685
vest	-2686
▁systems	-2687
▁schnell	-2688
isches	-2689
rieden	-2690
▁enjoy	-2691
▁entfern	-2692
ton	-2693
▁bew	-2694
▁weitere	-2695
wirtschaft	-2696
▁eben	-2697
▁Lin	-2698
▁various	-2699
gemein	-2700
▁Viel	-2701
▁richt	-2702
▁pat	-2703
adies	-2704
▁women	-2705
üt	-2706
▁befindet	-2707
atte	-2708
▁Stud	-2709
▁ur	-2710
▁Frauen	-2711
▁stellen	-2712
▁Zahl	-2713
roll	-2714
▁eigenen	-2715
▁really	-2716
▁step	-2717
▁Lie	-2718
ours	-2719
imate	-2720
▁Ende	-2721
▁organ	-2722
▁basis	-2723
▁sowohl	-2724
ennt	-2725
▁Comp	-2726
▁aff	-2727
▁old	-2728
▁Ihrer	-2729
▁industry	-2730
▁experience	-2731
▁origin	-2732
▁gesam	-2733
▁run	-2734
ategor	-2735
▁brauch	-2736
▁Wahl	-2737
▁El	-2738
▁ann	-2739
ails	-2740
▁guarante	-2741
▁Weg	-2742
isions	-2743
▁companies	-2744
esehen	-2745
▁tot	-2746
▁erreichen	-2747
▁natürlich	-2748
irm	-2749
ika	-2750
reaty	-2751
ody	-2752
▁könnte	-2753
▁wirklich	-2754
veral	-2755
▁Haushalts	-2756
hang	-2757
gende	-2758
▁Fahr	-2759
lock	-2760
▁comfort	-2761
oney	-2762
▁EUR	-2763
▁politischen	-2764
▁näch	-2765
▁page	-2766
▁New	-2767
sen	-2768
neten	-2769
▁bar	-2770
▁Fort	-2771
▁benef	-2772
thing	-2773
ived	-2774
▁German	-2775
▁especially	-2776
▁hatte	-2777
itiative	-2778
▁third	-2779
▁sector	-2780
row	-2781
▁occ	-2782
▁arbeit	-2783
▁period	-2784
aster	-2785
▁Haupt	-2786
▁Fun	-2787
▁aim	-2788
▁commit	-2789
▁Mark	-2790
til	-2791
▁:	-2792
ances	-2793
▁Geschäfts	-2794
▁pack	-2795
▁beaut	-2796
riften	-2797
▁Staaten	-2798
geord	-2799
▁month	-2800
▁government	-2801
▁deal	-2802
chan	-2803
▁dort	-2804
▁nie	-2805
rift	-2806
▁innov	-2807
app	-2808
▁hoch	-2809
▁close	-2810
▁proced	-2811
▁members	-2812
▁di	-2813
▁doc	-2814
▁besonders	-2815
▁prior	-2816
▁Forsch	-2817
▁unterstützen	-2818
▁matter	-2819
ival	-2820
▁col	-2821
▁Gegen	-2822
ization	-2823
▁profession	-2824
ino	-2825
▁top	-2826
AR	-2827
50	-2828
ably	-2829
cellent	-2830
ober	-2831
▁break	-2832
finden	-2833
▁Ausschuss	-2834
zuf	-2835
▁Alle	-2836
▁staff	-2837
ifiz	-2838
▁innerhalb	-2839
kung	-2840
▁Mehr	-2841
ograph	-2842
▁meiner	-2843
ides	-2844
▁11	-2845
▁done	-2846
▁ihnen	-2847
▁Seiten	-2848
ican	-2849
▁perform	-2850
▁mot	-2851
sk	-2852
ritte	-2853
▁gent	-2854
▁enter	-2855
amt	-2856
▁typ	-2857
ima	-2858
ething	-2859
▁food	-2860
▁Zukunft	-2861
▁soc	-2862
▁Situation	-2863
ety	-2864
neh	-2865
reg	-2866
treten	-2867
▁distr	-2868
▁instit	-2869
▁Produkt	-2870
ünft	-2871
▁personal	-2872
▁Park	-2873
▁negot	-2874
▁Zwe	-2875
ichtet	-2876
▁reform	-2877
dings	-2878
▁create	-2879
▁Fest	-2880
ai	-2881
▁entfernt	-2882
IT	-2883
▁private	-2884
▁poin	-2885
weisen	-2886
▁vielen	-2887
▁Jan	-2888
scheiden	-2889
▁represent	-2890
▁event	-2891
▁press	-2892
indung	-2893
▁Rolle	-2894
▁turn	-2895
▁nor	-2896
▁location	-2897
olf	-2898
▁verschiedenen	-2899
▁langu	-2900
▁Wettbewer	-2901
werk	-2902
▁feat	-2903
▁Programm	-2904
ec	-2905
▁Deutsch	-2906
asing	-2907
▁teil	-2908
▁betr	-2909
▁single	-2910
▁Tour	-2911
▁material	-2912
duc	-2913
icient	-2914
▁sum	-2915
▁prop	-2916
▁zwar	-2917
▁Gru	-2918
spl	-2919
zip	-2920
ension	-2921
ences	-2922
▁site	-2923
▁star	-2924
".	-2925
uc	-2926
▁Dire	-2927
",	-2928
inter	-2929
▁möchten	-2930
▁approach	-2931
▁itself	-2932
30	-2933
oment	-2934
▁internationalen	-2935
▁Terr	-2936
raum	-2937
▁ple	-2938
eign	-2939
ults	-2940
▁job	-2941
▁doub	-2942
▁lo	-2943
ordin	-2944
▁Hotels	-2945
▁accept	-2946
▁install	-2947
▁Richtlinie	-2948
▁something	-2949
onds	-2950
▁Chr	-2951
ühr	-2952
eiten	-2953
▁struct	-2954
▁Disk	-2955
▁favour	-2956
▁among	-2957
▁Abst	-2958
üd	-2959
▁Germany	-2960
▁decision	-2961
▁welt	-2962
ittle	-2963
iol	-2964
ände	-2965
▁list	-2966
▁town	-2967
isis	-2968
▁Wind	-2969
ification	-2970
fast	-2971
▁gener	-2972
▁Woch	-2973
wh	-2974
▁resour	-2975
ift	-2976
▁general	-2977
oor	-2978
▁bestimm	-2979
tember	-2980
ktor	-2981
▁aufge	-2982
▁several	-2983
▁programme	-2984
rael	-2985
uellen	-2986
▁following	-2987
▁gl	-2988
▁Op	-2989
▁Verbrauch	-2990
▁rapporteur	-2991
▁home	-2992
▁she	-2993
eg	-2994
▁Software	-2995
wär	-2996
▁making	-2997
▁automat	-2998
▁million	-2999
▁away	-3000
▁Ihren	-3001
atch	-3002
lands	-3003
▁Afr	-3004
▁dür	-3005
▁continue	-3006
▁Rück	-3007
ians	-3008
▁direkt	-3009
▁hinaus	-3010
uth	-3011
▁Su	-3012
▁Strateg	-3013
▁excellent	-3014
▁progress	-3015
auer	-3016
▁resolution	-3017
▁least	-3018
IS	-3019
▁enc	-3020
▁opin	-3021
nehmer	-3022
▁Nutz	-3023
▁serious	-3024
oto	-3025
mos	-3026
▁often	-3027
▁express	-3028
▁introdu	-3029
▁2000	-3030
▁sup	-3031
▁peace	-3032
▁Berlin	-3033
atives	-3034
iations	-3035
▁family	-3036
▁Kü	-3037
▁konn	-3038
cel	-3039
mework	-3040
sprache	-3041
▁mar	-3042
▁gentlemen	-3043
▁kind	-3044
miss	-3045
hens	-3046
▁ans	-3047
▁understand	-3048
▁erste	-3049
▁tro	-3050
▁rules	-3051
iere	-3052
erien	-3053
▁plan	-3054
▁offen	-3055
▁management	-3056
though	-3057
▁Gesundheit	-3058
wä	-3059
bei	-3060
▁Can	-3061
let	-3062
▁let	-3063
▁crisis	-3064
▁directive	-3065
▁Uhr	-3066
met	-3067
gricult	-3068
▁World	-3069
ifen	-3070
▁mach	-3071
▁Natur	-3072
▁going	-3073
ativen	-3074
▁particip	-3075
▁text	-3076
▁software	-3077
▁line	-3078
räge	-3079
▁Transp	-3080
▁online	-3081
strument	-3082
▁Met	-3083
▁Kre	-3084
▁anal	-3085
▁name	-3086
▁absol	-3087
▁extrem	-3088
haus	-3089
ierungen	-3090
▁apart	-3091
voll	-3092
▁relations	-3093
leistungen	-3094
aps	-3095
▁money	-3096
▁Nov	-3097
▁regul	-3098
▁Frank	-3099
▁stark	-3100
▁Meinung	-3101
▁range	-3102
fehl	-3103
stück	-3104
go	-3105
▁Komm	-3106
▁Gra	-3107
ksam	-3108
▁contact	-3109
▁institutions	-3110
iken	-3111
▁welcome	-3112
icial	-3113
ype	-3114
▁My	-3115
produ	-3116
▁once	-3117
▁forward	-3118
wach	-3119
▁beiden	-3120
fect	-3121
ony	-3122
▁etc	-3123
▁europäische	-3124
▁Gäste	-3125
▁zus	-3126
zogen	-3127
icle	-3128
▁fast	-3129
▁198	-3130
bet	-3131
▁little	-3132
▁Emp	-3133
▁until	-3134
prü	-3135
teilung	-3136
▁Univers	-3137
weg	-3138
▁inc	-3139
ußen	-3140
▁klar	-3141
▁sett	-3142
▁einzel	-3143
ean	-3144
▁feel	-3145
pekt	-3146
etzung	-3147
▁ident	-3148
▁optim	-3149
ully	-3150
DE	-3151
▁Rep	-3152
▁hät	-3153
▁Gleich	-3154
▁dest	-3155
▁bal	-3156
▁Span	-3157
▁price	-3158
▁recog	-3159
▁refer	-3160
▁towards	-3161
▁Invest	-3162
▁customers	-3163
▁unserem	-3164
▁Treaty	-3165
▁Abgeord	-3166
▁communic	-3167
▁things	-3168
▁Zusammenhang	-3169
▁days	-3170
▁Pe	-3171
▁ant	-3172
istic	-3173
▁Personen	-3174
eu	-3175
thers	-3176
▁milit	-3177
anges	-3178
weis	-3179
▁Madam	-3180
outh	-3181
ured	-3182
▁Artikel	-3183
▁post	-3184
▁2006	-3185
airs	-3186
enzen	-3187
▁Hilfe	-3188
itäts	-3189
▁increase	-3190
▁walk	-3191
▁hard	-3192
unds	-3193
lik	-3194
▁kommt	-3195
wand	-3196
mat	-3197
esten	-3198
▁2.	-3199
▁aid	-3200
▁Partner	-3201
▁mention	-3202
gän	-3203
asst	-3204
CH	-3205
-0	-3206
iesen	-3207
▁situ	-3208
yl	-3209
ifft	-3210
▁Fisch	-3211
▁strong	-3212
ommend	-3213
▁Schluss	-3214
zimmer	-3215
▁Members	-3216
crip	-3217
▁mind	-3218
▁opportunity	-3219
▁Verantwort	-3220
ennen	-3221
▁National	-3222
na	-3223
▁App	-3224
▁growth	-3225
idence	-3226
▁stre	-3227
▁Mo	-3228
▁Bank	-3229
▁seem	-3230
▁Car	-3231
rech	-3232
▁bestehen	-3233
▁function	-3234
▁Technolog	-3235
▁keep	-3236
▁finanz	-3237
idency	-3238
lean	-3239
▁stellt	-3240
▁ve	-3241
▁Demokrat	-3242
▁bzw	-3243
ume	-3244
han	-3245
tract	-3246
läge	-3247
▁activities	-3248
▁stär	-3249
▁War	-3250
▁Entschließ	-3251
fassung	-3252
▁entsprechen	-3253
atten	-3254
ideo	-3255
ales	-3256
▁Fil	-3257
▁Do	-3258
ison	-3259
half	-3260
▁bringen	-3261
▁ess	-3262
▁ren	-3263
ächst	-3264
2.	-3265
▁Sep	-3266
▁Jul	-3267
ocus	-3268
▁provided	-3269
ließen	-3270
OR	-3271
▁land	-3272
leicht	-3273
▁rather	-3274
▁Kultur	-3275
▁quite	-3276
▁ja	-3277
▁positive	-3278
▁port	-3279
side	-3280
ieten	-3281
▁check	-3282
vent	-3283
▁Bas	-3284
mäß	-3285
▁Ums	-3286
▁il	-3287
▁Weit	-3288
▁Lösung	-3289
▁weniger	-3290
▁sw	-3291
▁weltweit	-3292
▁Sc	-3293
▁four	-3294
▁might	-3295
itions	-3296
▁Präsidentin	-3297
▁indem	-3298
▁Organis	-3299
weil	-3300
stra	-3301
AS	-3302
▁etwa	-3303
ww	-3304
▁Cent	-3305
edom	-3306
erecht	-3307
▁Leben	-3308
▁gilt	-3309
vorsch	-3310
▁führ	-3311
annten	-3312
▁fully	-3313
äuf	-3314
ären	-3315
onger	-3316
▁Dieses	-3317
▁yet	-3318
yr	-3319
ply	-3320
Pro	-3321
ha	-3322
ller	-3323
▁agree	-3324
▁resources	-3325
apan	-3326
letz	-3327
ämlich	-3328
baren	-3329
prochen	-3330
▁behalf	-3331
forderungen	-3332
rolle	-3333
▁Deshalb	-3334
▁treat	-3335
▁Minister	-3336
▁gewähr	-3337
▁tas	-3338
▁try	-3339
▁big	-3340
▁daran	-3341
▁nämlich	-3342
▁dev	-3343
▁elect	-3344
völk	-3345
▁State	-3346
ühren	-3347
plan	-3348
einander	-3349
▁park	-3350
▁qual	-3351
▁gesagt	-3352
ined	-3353
▁Geld	-3354
eits	-3355
▁partners	-3356
aden	-3357
stadt	-3358
▁genau	-3359
zeitig	-3360
▁ideal	-3361
▁include	-3362
▁Char	-3363
▁pur	-3364
▁spiel	-3365
▁Sozial	-3366
alität	-3367
abhäng	-3368
▁Europas	-3369
▁sug	-3370
▁signific	-3371
liches	-3372
▁sogar	-3373
bon	-3374
▁mean	-3375
hnt	-3376
lei	-3377
▁After	-3378
legenheit	-3379
mosph	-3380
fert	-3381
▁bitte	-3382
▁lab	-3383
▁remain	-3384
hunder	-3385
▁entscheiden	-3386
▁Kosten	-3387
▁Ort	-3388
frage	-3389
amental	-3390
ächlich	-3391
ager	-3392
ij	-3393
reiche	-3394
the	-3395
▁erfolg	-3396
recht	-3397
setzung	-3398
ählen	-3399
▁Rates	-3400
▁September	-3401
ratic	-3402
▁Ass	-3403
▁having	-3404
▁speak	-3405
telle	-3406
ücksicht	-3407
wohl	-3408
▁class	-3409
▁bekannt	-3410
iberal	-3411
▁admin	-3412
▁bor	-3413
▁ladies	-3414
▁Nor	-3415
ception	-3416
▁value	-3417
▁solution	-3418
komm	-3419
▁begrü	-3420
▁nehmen	-3421
roffen	-3422
▁minutes	-3423
▁)	-3424
ona	-3425
▁gute	-3426
▁technology	-3427
armon	-3428
▁u	-3429
▁mag	-3430
▁Erfahr	-3431
▁recommend	-3432
uh	-3433
▁left	-3434
▁tem	-3435
▁Text	-3436
▁Austr	-3437
▁strength	-3438
▁proposals	-3439
iers	-3440
wendet	-3441
iful	-3442
▁jeden	-3443
▁Web	-3444
▁educ	-3445
▁amendments	-3446
▁led	-3447
▁persön	-3448
▁safety	-3449
▁Preis	-3450
verb	-3451
▁Projekt	-3452
▁Sta	-3453
▁Per	-3454
▁Jahres	-3455
illa	-3456
-1	-3457
OM	-3458
▁erwar	-3459
▁Produkte	-3460
tragen	-3461
▁unterschied	-3462
▁along	-3463
▁field	-3464
▁ihn	-3465
▁makes	-3466
▁log	-3467
▁umf	-3468
ingen	-3469
▁Grün	-3470
▁kurz	-3471
ops	-3472
▁easy	-3473
▁gemacht	-3474
▁Priv	-3475
▁adopted	-3476
▁Punkt	-3477
iten	-3478
▁Tod	-3479
▁entire	-3480
ports	-3481
anst	-3482
▁Dank	-3483
▁gerade	-3484
za	-3485
▁Millionen	-3486
▁light	-3487
▁Israel	-3488
▁ü	-3489
bare	-3490
▁kosten	-3491
▁above	-3492
stant	-3493
▁framework	-3494
most	-3495
▁Tür	-3496
fully	-3497
▁times	-3498
ativ	-3499
▁meisten	-3500
▁40	-3501
▁Ange	-3502
▁ihm	-3503
▁points	-3504
chs	-3505
racy	-3506
handlungen	-3507
▁taking	-3508
▁pa	-3509
▁dessen	-3510
▁opinion	-3511
▁arch	-3512
▁Zugang	-3513
ana	-3514
▁ak	-3515
▁Bezug	-3516
▁verbunden	-3517
ethod	-3518
▁economy	-3519
aurants	-3520
▁costs	-3521
▁tool	-3522
ested	-3523
▁ebenfalls	-3524
▁seinem	-3525
▁week	-3526
▁application	-3527
▁essential	-3528
▁viol	-3529
▁content	-3530
alten	-3531
▁charac	-3532
▁anges	-3533
nete	-3534
▁flex	-3535
▁creat	-3536
ledge	-3537
▁Wirtschaft	-3538
self	-3539
iben	-3540
▁Gar	-3541
▁Kap	-3542
▁bath	-3543
▁others	-3544
oph	-3545
ruktur	-3546
▁Komp	-3547
▁wahr	-3548
wahl	-3549
▁recht	-3550
ric	-3551
ysteme	-3552
▁besser	-3553
▁politische	-3554
▁gre	-3555
▁Zust	-3556
▁Ide	-3557
arian	-3558
▁bank	-3559
▁website	-3560
▁constru	-3561
▁provides	-3562
▁focus	-3563
▁legislation	-3564
word	-3565
AL	-3566
achten	-3567
▁verst	-3568
▁darf	-3569
inge	-3570
▁agricult	-3571
▁unterstützt	-3572
▁due	-3573
ser	-3574
▁Tats	-3575
▁never	-3576
atis	-3577
▁deliver	-3578
▁Janu	-3579
▁term	-3580
▁called	-3581
gebung	-3582
▁nah	-3583
▁return	-3584
lement	-3585
▁flo	-3586
▁One	-3587
sweise	-3588
ünf	-3589
▁Beschäft	-3590
▁abge	-3591
▁attention	-3592
tag	-3593
▁darin	-3594
unst	-3595
▁policies	-3596
ished	-3597
tels	-3598
▁Meer	-3599
▁beginn	-3600
▁Rechte	-3601
▁results	-3602
erst	-3603
▁Frei	-3604
▁Unsere	-3605
ane	-3606
▁programm	-3607
▁2005	-3608
▁sure	-3609
iner	-3610
▁team	-3611
iled	-3612
▁concerned	-3613
▁gehen	-3614
now	-3615
igr	-3616
▁mass	-3617
ül	-3618
▁wesent	-3619
▁öffentlichen	-3620
▁Deutschland	-3621
▁Buch	-3622
▁Fraktion	-3623
sh	-3624
ähe	-3625
▁nichts	-3626
hing	-3627
▁Institution	-3628
aged	-3629
▁Pat	-3630
ators	-3631
▁Den	-3632
▁past	-3633
▁appropr	-3634
▁importance	-3635
▁sollen	-3636
▁questions	-3637
oting	-3638
▁dürfen	-3639
▁Sol	-3640
▁glaube	-3641
▁Verkehr	-3642
vernment	-3643
▁Sub	-3644
igital	-3645
▁building	-3646
reicht	-3647
▁groups	-3648
▁Sel	-3649
▁schaffen	-3650
▁Dieser	-3651
▁freedom	-3652
EL	-3653
▁Co	-3654
▁Früh	-3655
▁Antw	-3656
▁risk	-3657
mitted	-3658
ada	-3659
▁Sa	-3660
▁projects	-3661
▁Entwicklungs	-3662
▁standard	-3663
▁pot	-3664
▁Flug	-3665
▁fair	-3666
uz	-3667
▁context	-3668
▁Angeb	-3669
▁nationalen	-3670
▁Website	-3671
▁society	-3672
▁rela	-3673
▁Gl	-3674
▁einigen	-3675
▁simply	-3676
▁Hö	-3677
▁derzeit	-3678
ding	-3679
▁responsibility	-3680
reiben	-3681
▁Jahrhunder	-3682
▁Wasser	-3683
zentr	-3684
benso	-3685
ringen	-3686
The	-3687
fs	-3688
zustellen	-3689
wür	-3690
▁Pra	-3691
ufact	-3692
▁2004	-3693
▁young	-3694
▁total	-3695
▁perfect	-3696
▁effective	-3697
▁Groß	-3698
▁known	-3699
afen	-3700
▁Prof	-3701
spolitik	-3702
irc	-3703
aussch	-3704
▁zusätz	-3705
▁dom	-3706
verkehr	-3707
gesehen	-3708
▁Restaurant	-3709
▁moder	-3710
ceed	-3711
▁Sal	-3712
schließlich	-3713
▁ihrem	-3714
▁heart	-3715
▁Nicht	-3716
▁keinen	-3717
bour	-3718
ients	-3719
▁brauchen	-3720
▁beautiful	-3721
▁Gemeinschaft	-3722
wärt	-3723
ustain	-3724
▁Mär	-3725
▁arr	-3726
berg	-3727
▁bit	-3728
▁Verw	-3729
▁TV	-3730
▁Kolleg	-3731
▁Qualität	-3732
▁sea	-3733
▁holid	-3734
▁road	-3735
▁Rei	-3736
▁method	-3737
▁Just	-3738
▁Verbraucher	-3739
▁Tre	-3740
▁challen	-3741
▁Christ	-3742
▁Aussprache	-3743
▁principle	-3744
▁cover	-3745
unkte	-3746
amb	-3747
▁industr	-3748
▁strategy	-3749
cen	-3750
rimin	-3751
▁table	-3752
▁Ins	-3753
▁handelt	-3754
▁Design	-3755
▁head	-3756
arbeiten	-3757
▁attra	-3758
▁talk	-3759
▁natural	-3760
▁required	-3761
OS	-3762
▁verbess	-3763
unehmen	-3764
iqu	-3765
eutet	-3766
▁weiterhin	-3767
uell	-3768
spruch	-3769
▁version	-3770
▁Fir	-3771
rieg	-3772
▁lea	-3773
▁environmental	-3774
useum	-3775
▁send	-3776
ampf	-3777
istan	-3778
acy	-3779
▁Wach	-3780
▁verste	-3781
ziehen	-3782
▁miss	-3783
▁heraus	-3784
▁Far	-3785
▁continu	-3786
haltung	-3787
▁Abstimmung	-3788
itive	-3789
unities	-3790
EC	-3791
onnen	-3792
▁macht	-3793
▁greater	-3794
▁Dr	-3795
äter	-3796
ette	-3797
▁increasing	-3798
▁institution	-3799
onen	-3800
▁benöt	-3801
äus	-3802
astru	-3803
▁meeting	-3804
isiert	-3805
▁Leist	-3806
pflicht	-3807
uelle	-3808
term	-3809
▁Cont	-3810
▁deutlich	-3811
▁Bem	-3812
▁betrifft	-3813
▁besten	-3814
▁views	-3815
änger	-3816
unächst	-3817
emp	-3818
▁significant	-3819
▁Ag	-3820
utzt	-3821
frastru	-3822
ulture	-3823
▁deshalb	-3824
▁training	-3825
▁II	-3826
▁erklär	-3827
▁bedeutet	-3828
▁Ebene	-3829
zeichnet	-3830
ning	-3831
genda	-3832
▁central	-3833
cal	-3834
▁rad	-3835
▁demand	-3836
▁23	-3837
ban	-3838
igent	-3839
▁standards	-3840
▁words	-3841
▁sei	-3842
▁don	-3843
99	-3844
▁Sitz	-3845
▁Bezieh	-3846
▁technical	-3847
An	-3848
▁pub	-3849
ims	-3850
▁November	-3851
▁cla	-3852
▁manufact	-3853
▁house	-3854
hib	-3855
ided	-3856
▁share	-3857
leben	-3858
hörden	-3859
▁würden	-3860
▁reserv	-3861
▁Cas	-3862
▁interess	-3863
vo	-3864
▁longer	-3865
▁moment	-3866
▁Fortsch	-3867
ex	-3868
▁network	-3869
fall	-3870
heb	-3871
staat	-3872
▁user	-3873
▁extra	-3874
▁Zus	-3875
erous	-3876
bereit	-3877
▁Will	-3878
▁relax	-3879
anze	-3880
▁Bevölk	-3881
▁wichtige	-3882
aler	-3883
▁komple	-3884
▁Demokratie	-3885
▁infl	-3886
▁aspect	-3887
▁fa	-3888
▁Windows	-3889
▁achieve	-3890
▁oft	-3891
ritten	-3892
▁night	-3893
▁Wohn	-3894
▁Klima	-3895
iting	-3896
▁aufgrund	-3897
rach	-3898
▁lar	-3899
▁clearly	-3900
▁Besuch	-3901
▁Schul	-3902
▁via	-3903
▁music	-3904
▁according	-3905
▁Dok	-3906
verständ	-3907
gesetzt	-3908
züglich	-3909
jen	-3910
stoff	-3911
▁sele	-3912
▁side	-3913
▁versch	-3914
läss	-3915
▁solche	-3916
▁wenig	-3917
▁Apr	-3918
schluss	-3919
▁mat	-3920
▁parl	-3921
aging	-3922
▁clean	-3923
▁nature	-3924
▁erne	-3925
cent	-3926
▁findet	-3927
▁proposed	-3928
▁recent	-3929
▁subs	-3930
▁learn	-3931
mals	-3932
▁Betrie	-3933
▁Gesetz	-3934
AP	-3935
yle	-3936
▁appear	-3937
▁authorities	-3938
atal	-3939
▁sour	-3940
▁beispiel	-3941
▁Gesellschaft	-3942
▁May	-3943
▁fundamental	-3944
▁Japan	-3945
AD	-3946
rank	-3947
▁quick	-3948
äsent	-3949
''	-3950
ari	-3951
▁though	-3952
▁responsible	-3953
▁months	-3954
▁directly	-3955
▁breakfast	-3956
▁Menschenrechte	-3957
▁Industrie	-3958
/200	-3959
▁vorgesch	-3960
▁facilities	-3961
wohn	-3962
▁employment	-3963
▁obl	-3964
change	-3965
▁Ju	-3966
▁fish	-3967
frist	-3968
▁prec	-3969
▁Von	-3970
▁internal	-3971
platz	-3972
▁First	-3973
▁Förder	-3974
ker	-3975
▁Nähe	-3976
▁capital	-3977
▁civil	-3978
▁guests	-3979
unch	-3980
▁imm	-3981
elves	-3982
▁interests	-3983
ones	-3984
▁Kunst	-3985
▁gewährle	-3986
▁test	-3987
▁pages	-3988
▁requirements	-3989
▁maintain	-3990
istischen	-3991
ffe	-3992
gelegt	-3993
▁lange	-3994
▁Ha	-3995
▁Brit	-3996
ri	-3997
▁vier	-3998
orted	-3999
▁Such	-4000
▁solutions	-4001
ption	-4002
▁distrib	-4003
▁character	-4004
▁parties	-4005
▁Mitarbeit	-4006
▁involved	-4007
heim	-4008
▁Auss	-4009
wirkungen	-4010
▁Richtung	-4011
▁verein	-4012
gency	-4013
▁Ziele	-4014
▁mount	-4015
▁nächsten	-4016
▁Umsetzung	-4017
▁AG	-4018
▁Herren	-4019
ief	-4020
ables	-4021
▁efforts	-4022
▁assist	-4023
▁Stat	-4024
IC	-4025
▁Fehl	-4026
ube	-4027
▁Bro	-4028
ließlich	-4029
stehen	-4030
▁Struktur	-4031
▁illeg	-4032
60	-4033
ienen	-4034
umente	-4035
▁Wert	-4036
▁language	-4037
▁voted	-4038
kämp	-4039
▁history	-4040
▁regions	-4041
▁sy	-4042
▁nutzen	-4043
▁Bau	-4044
▁thems	-4045
▁Entscheidung	-4046
▁Verantwortung	-4047
▁vol	-4048
gru	-4049
ender	-4050
▁bil	-4051
▁Wachst	-4052
▁unver	-4053
▁themselves	-4054
lef	-4055
▁currently	-4056
▁cultural	-4057
2,	-4058
ynam	-4059
▁sustain	-4060
▁April	-4061
▁happen	-4062
ither	-4063
▁caus	-4064
▁upon	-4065
folgt	-4066
▁prevent	-4067
▁Ir	-4068
▁century	-4069
▁competition	-4070
▁Ansicht	-4071
irt	-4072
▁needed	-4073
▁foreign	-4074
▁Anwendung	-4075
▁terror	-4076
▁betre	-4077
▁Druck	-4078
▁Paris	-4079
▁apply	-4080
▁197	-4081
teile	-4082
▁Gebiet	-4083
▁request	-4084
▁From	-4085
▁allerdings	-4086
tes	-4087
▁web	-4088
▁zie	-4089
▁charge	-4090
bank	-4091
hem	-4092
▁Ira	-4093
▁2003	-4094
▁sozialen	-4095
▁000	-4096
ellen	-4097
▁low	-4098
▁enough	-4099
▁prep	-4100
▁Fern	-4101
▁dank	-4102
▁beispielsweise	-4103
▁Verfahren	-4104
▁extremely	-4105
▁implementation	-4106
esented	-4107
▁changes	-4108
▁Pf	-4109
▁live	-4110
▁gegeben	-4111
▁events	-4112
▁recogn	-4113
US	-4114
drück	-4115
▁Raum	-4116
lauf	-4117
llig	-4118
▁Kar	-4119
▁kont	-4120
▁gehört	-4121
▁fight	-4122
▁bedeut	-4123
üssel	-4124
▁ern	-4125
aper	-4126
▁Gre	-4127
obile	-4128
▁force	-4129
▁gemeinsamen	-4130
urf	-4131
▁Please	-4132
ommod	-4133
▁Grundlage	-4134
▁disk	-4135
richtung	-4136
deut	-4137
▁camp	-4138
▁Bedingungen	-4139
▁erziel	-4140
cies	-4141
▁Dam	-4142
▁record	-4143
▁201	-4144
▁Selbst	-4145
▁anim	-4146
▁developed	-4147
▁Bü	-4148
ka	-4149
▁zust	-4150
ired	-4151
▁Interesse	-4152
key	-4153
val	-4154
▁item	-4155
▁wohl	-4156
▁ago	-4157
▁station	-4158
.0	-4159
▁Musik	-4160
amous	-4161
ama	-4162
▁Außen	-4163
▁ermöglich	-4164
▁jeweil	-4165
▁notwendig	-4166
▁Trans	-4167
▁democracy	-4168
▁guarantee	-4169
inzip	-4170
▁hoffe	-4171
arf	-4172
lied	-4173
igungs	-4174
▁Bil	-4175
▁demokrat	-4176
▁enthalten	-4177
▁Benutz	-4178
▁Wel	-4179
▁sprechen	-4180
▁wind	-4181
linien	-4182
orr	-4183
▁neu	-4184
▁lot	-4185
has	-4186
▁mess	-4187
▁Stre	-4188
▁Jun	-4189
▁verwendet	-4190
dam	-4191
immungen	-4192
▁Vorschläge	-4193
int	-4194
▁vielleicht	-4195
grif	-4196
▁Soc	-4197
▁Kons	-4198
würd	-4199
▁maxim	-4200
▁separ	-4201
rench	-4202
vert	-4203
▁contain	-4204
▁markets	-4205
▁restaurant	-4206
-,	-4207
ublik	-4208
ele	-4209
▁pool	-4210
▁Einsatz	-4211
atory	-4212
▁Book	-4213
cke	-4214
mbH	-4215
nehm	-4216
▁targe	-4217
▁Einz	-4218
▁Nord	-4219
istration	-4220
ffice	-4221
▁kleinen	-4222
best	-4223
gliche	-4224
crib	-4225
▁Krit	-4226
ipped	-4227
▁werde	-4228
schn	-4229
hes	-4230
▁expect	-4231
▁negotiations	-4232
play	-4233
▁Bre	-4234
▁Kön	-4235
▁Wieder	-4236
▁Außer	-4237
ragen	-4238
mut	-4239
▁Tages	-4240
▁please	-4241
▁protect	-4242
sichtlich	-4243
▁Aug	-4244
▁comfortable	-4245
jekte	-4246
▁Ihrem	-4247
▁Daher	-4248
lling	-4249
▁nam	-4250
▁Wort	-4251
▁cases	-4252
▁regulation	-4253
▁soon	-4254
gern	-4255
▁schwier	-4256
bel	-4257
▁comes	-4258
ürz	-4259
▁Russia	-4260
▁Eur	-4261
▁Date	-4262
▁pict	-4263
▁Möglichkeiten	-4264
▁developing	-4265
igur	-4266
▁circ	-4267
ense	-4268
▁regional	-4269
ips	-4270
ätzen	-4271
▁einges	-4272
▁Geschichte	-4273
▁Frieden	-4274
▁Netz	-4275
▁€	-4276
ano	-4277
▁indic	-4278
▁farm	-4279
▁halten	-4280
▁60	-4281
▁Erfolg	-4282
dle	-4283
▁bevor	-4284
▁Heraus	-4285
teilt	-4286
▁GmbH	-4287
▁höch	-4288
abel	-4289
zeigt	-4290
tended	-4291
▁Damen	-4292
▁ö	-4293
▁Erweit	-4294
▁Mont	-4295
ump	-4296
stall	-4297
▁France	-4298
▁Parte	-4299
hend	-4300
▁erreicht	-4301
▁By	-4302
▁Aktiv	-4303
peten	-4304
▁final	-4305
merksam	-4306
▁situated	-4307
▁More	-4308
▁true	-4309
▁either	-4310
▁previous	-4311
geln	-4312
▁Schwe	-4313
mark	-4314
▁Cour	-4315
orge	-4316
itionen	-4317
▁Prot	-4318
▁Mot	-4319
▁South	-4320
▁Du	-4321
▁übern	-4322
handlung	-4323
▁Reihe	-4324
▁könnten	-4325
▁berücksicht	-4326
▁everything	-4327
▁prices	-4328
▁vorgeschlagen	-4329
bildung	-4330
▁Tro	-4331
teilen	-4332
▁Wissen	-4333
▁Presidency	-4334
estern	-4335
▁corre	-4336
▁Debatte	-4337
▁21	-4338
▁Blick	-4339
▁Hinblick	-4340
▁Kle	-4341
▁arbeiten	-4342
onstr	-4343
andid	-4344
TO	-4345
▁fünf	-4346
rechts	-4347
▁‘	-4348
ork	-4349
iable	-4350
▁minim	-4351
▁unique	-4352
RO	-4353
▁ermöglicht	-4354
rieben	-4355
▁receive	-4356
arbeitung	-4357
▁accommod	-4358
▁Hoch	-4359
haft	-4360
istet	-4361
▁erfü	-4362
▁monitor	-4363
▁Auswirkungen	-4364
bl	-4365
▁ausgest	-4366
▁program	-4367
▁states	-4368
▁almost	-4369
▁Plan	-4370
▁Landes	-4371
▁file	-4372
▁democratic	-4373
▁amb	-4374
▁cut	-4375
▁later	-4376
▁vollständ	-4377
▁gemeinsame	-4378
wegen	-4379
▁verfügt	-4380
inner	-4381
erseits	-4382
spräsident	-4383
TM	-4384
▁included	-4385
auen	-4386
▁Regionen	-4387
attet	-4388
eless	-4389
▁Diskuss	-4390
▁hos	-4391
▁Mod	-4392
▁bleiben	-4393
▁konkre	-4394
date	-4395
trie	-4396
▁improve	-4397
▁allgemein	-4398
anten	-4399
ging	-4400
▁akzept	-4401
▁join	-4402
bahn	-4403
▁Erklär	-4404
▁thus	-4405
▁verschiedene	-4406
unik	-4407
usst	-4408
ichen	-4409
prise	-4410
▁French	-4411
▁climate	-4412
▁created	-4413
▁actually	-4414
lack	-4415
hinder	-4416
▁living	-4417
ilar	-4418
▁document	-4419
▁Sport	-4420
IP	-4421
▁seen	-4422
mail	-4423
▁enl	-4424
jenigen	-4425
▁Ergebnis	-4426
vin	-4427
▁Öff	-4428
▁analys	-4429
▁Steuer	-4430
▁education	-4431
▁que	-4432
▁Forschung	-4433
▁Apart	-4434
▁surround	-4435
▁Arbeitspl	-4436
ikt	-4437
urt	-4438
▁schrift	-4439
▁Room	-4440
▁Unser	-4441
▁tats	-4442
ios	-4443
▁zeigt	-4444
▁Kir	-4445
▁idea	-4446
▁Integr	-4447
:00	-4448
ulate	-4449
▁Frühstück	-4450
▁type	-4451
▁Nie	-4452
igte	-4453
▁Doch	-4454
▁vill	-4455
▁Minuten	-4456
▁procedure	-4457
▁immed	-4458
▁Sicherheits	-4459
▁appropriate	-4460
ko	-4461
ored	-4462
▁mer	-4463
onn	-4464
▁Beg	-4465
▁Rechn	-4466
▁majority	-4467
▁additional	-4468
▁fort	-4469
▁customer	-4470
haps	-4471
▁hold	-4472
▁travel	-4473
ires	-4474
▁führt	-4475
▁Institutionen	-4476
gegen	-4477
▁encour	-4478
fil	-4479
ound	-4480
ester	-4481
ta	-4482
▁Portug	-4483
▁Änderungsantrag	-4484
▁altern	-4485
▁happ	-4486
▁euro	-4487
ißt	-4488
mm	-4489
chnik	-4490
ental	-4491
▁hatten	-4492
▁27	-4493
▁Kraft	-4494
stead	-4495
▁funds	-4496
ießen	-4497
ommer	-4498
▁held	-4499
▁Prozess	-4500
setzen	-4501
rad	-4502
▁Vertre	-4503
▁contract	-4504
▁official	-4505
▁Lis	-4506
ingt	-4507
adurch	-4508
▁publish	-4509
▁Lond	-4510
feld	-4511
▁Ant	-4512
rachten	-4513
▁designed	-4514
orf	-4515
▁Aff	-4516
▁workers	-4517
▁Platz	-4518
▁schein	-4519
▁wide	-4520
ibr	-4521
▁Com	-4522
▁lack	-4523
▁Dis	-4524
▁dialog	-4525
ctors	-4526
ipment	-4527
▁Arch	-4528
▁Strategie	-4529
ood	-4530
▁famous	-4531
ielle	-4532
laden	-4533
folgen	-4534
iellen	-4535
▁outside	-4536
▁Ausdruck	-4537
▁school	-4538
▁erwä	-4539
▁propert	-4540
▁Tatsache	-4541
iens	-4542
▁thing	-4543
lle	-4544
▁EC	-4545
▁funktion	-4546
atisf	-4547
▁Staats	-4548
▁strengthen	-4549
▁erforderlich	-4550
kra	-4551
barkeit	-4552
▁bisher	-4553
▁Hers	-4554
▁Abgeordneten	-4555
▁Erst	-4556
▁Kolleginnen	-4557
ole	-4558
iance	-4559
▁Webs	-4560
▁professional	-4561
jähr	-4562
▁knowledge	-4563
▁throughout	-4564
▁General	-4565
▁*	-4566
orre	-4567
▁Iran	-4568
▁Rad	-4569
▁American	-4570
▁gesamten	-4571
va	-4572
frei	-4573
▁answer	-4574
pendent	-4575
▁assoc	-4576
ternal	-4577
imme	-4578
▁hon	-4579
öglichen	-4580
▁Funktion	-4581
öffentlich	-4582
ässt	-4583
▁Mil	-4584
auber	-4585
▁Team	-4586
▁proper	-4587
ählt	-4588
▁angeb	-4589
zer	-4590
▁Binnen	-4591
▁rate	-4592
▁early	-4593
▁relev	-4594
oid	-4595
▁West	-4596
▁date	-4597
▁Version	-4598
▁denke	-4599
anced	-4600
änden	-4601
▁suggest	-4602
▁entwickelt	-4603
▁draw	-4604
▁certainly	-4605
uk	-4606
▁Währ	-4607
▁Außerdem	-4608
roso	-4609
▁danken	-4610
▁exclus	-4611
▁features	-4612
ogra	-4613
▁einzelnen	-4614
▁looking	-4615
▁äußer	-4616
ipf	-4617
▁Zum	-4618
otos	-4619
▁five	-4620
▁works	-4621
▁Schritt	-4622
▁download	-4623
▁Denn	-4624
▁erhö	-4625
▁London	-4626
pression	-4627
iews	-4628
oper	-4629
▁behand	-4630
▁betra	-4631
▁Bevölkerung	-4632
▁internationale	-4633
esh	-4634
clud	-4635
▁später	-4636
▁Ris	-4637
▁Hos	-4638
▁transl	-4639
▁traditional	-4640
cep	-4641
▁Dec	-4642
▁doing	-4643
fähigkeit	-4644
▁cop	-4645
▁links	-4646
▁space	-4647
ült	-4648
▁resol	-4649
bru	-4650
▁ever	-4651
ändert	-4652
▁Verhandlungen	-4653
▁hours	-4654
kn	-4655
▁colleag	-4656
äche	-4657
▁Beziehungen	-4658
▁potential	-4659
▁weiß	-4660
▁Gemeinschafts	-4661
ällen	-4662
▁ebenso	-4663
▁North	-4664
▁befinden	-4665
▁communication	-4666
cer	-4667
1,	-4668
fragen	-4669
▁guest	-4670
▁emphas	-4671
▁Luft	-4672
▁Familien	-4673
liegen	-4674
sehen	-4675
igration	-4676
mitteln	-4677
▁gleichzeitig	-4678
▁original	-4679
▁Kos	-4680
▁enable	-4681
▁Fund	-4682
▁wider	-4683
▁Mitglieder	-4684
▁investment	-4685
▁Zur	-4686
äss	-4687
▁aud	-4688
▁users	-4689
▁Antwort	-4690
▁univers	-4691
enken	-4692
▁August	-4693
▁divers	-4694
▁darum	-4695
▁across	-4696
▁normal	-4697
▁consequ	-4698
ini	-4699
cure	-4700
▁Führ	-4701
▁setzen	-4702
▁weiteren	-4703
ET	-4704
ländern	-4705
▁impact	-4706
▁neben	-4707
AM	-4708
wie	-4709
▁connection	-4710
▁80	-4711
▁konnte	-4712
▁takes	-4713
▁Programme	-4714
kr	-4715
stre	-4716
hung	-4717
▁Terror	-4718
isieren	-4719
▁Bereichen	-4720
▁Handels	-4721
▁cross	-4722
▁Zentrum	-4723
ava	-4724
des	-4725
kämpfung	-4726
▁amount	-4727
verfahren	-4728
▁absolute	-4729
▁vorh	-4730
▁hätte	-4731
▁neues	-4732
arbeitet	-4733
▁Vereinigten	-4734
▁although	-4735
aly	-4736
ügen	-4737
▁Nat	-4738
▁angenommen	-4739
ille	-4740
▁concerning	-4741
onom	-4742
▁jedem	-4743
▁relig	-4744
.000	-4745
▁Pa	-4746
teid	-4747
hab	-4748
indest	-4749
erei	-4750
uted	-4751
▁Turkey	-4752
▁programmes	-4753
▁Leit	-4754
▁mechan	-4755
zif	-4756
▁hinter	-4757
▁Position	-4758
▁Süd	-4759
alter	-4760
▁half	-4761
▁Dialog	-4762
▁concerns	-4763
▁1,	-4764
▁parts	-4765
ara	-4766
▁err	-4767
ipl	-4768
halte	-4769
aring	-4770
▁card	-4771
▁complex	-4772
uren	-4773
▁aktiv	-4774
▁gemeinsam	-4775
▁Pak	-4776
▁Proz	-4777
▁Beitrag	-4778
▁enlarge	-4779
▁Let	-4780
▁friendly	-4781
▁gelten	-4782
oking	-4783
▁zuf	-4784
▁Flugh	-4785
▁helfen	-4786
▁took	-4787
▁Online	-4788
▁Themen	-4789
▁writing	-4790
kei	-4791
▁solid	-4792
griff	-4793
▁beit	-4794
▁game	-4795
▁lat	-4796
▁Werk	-4797
richtungen	-4798
▁Acc	-4799
▁Aufgabe	-4800
.00	-4801
ias	-4802
▁community	-4803
▁gegenwärt	-4804
▁mentioned	-4805
lang	-4806
▁built	-4807
▁Schlussel	-4808
AC	-4809
▁heißt	-4810
range	-4811
▁Febru	-4812
▁Inform	-4813
▁leading	-4814
länder	-4815
▁Abkommen	-4816
▁ca	-4817
▁kleine	-4818
▁IS	-4819
ösen	-4820
▁empf	-4821
führen	-4822
▁basic	-4823
▁Förderung	-4824
▁prakt	-4825
ox	-4826
▁vö	-4827
▁Since	-4828
fortun	-4829
▁Handel	-4830
zös	-4831
▁joint	-4832
▁completely	-4833
▁jede	-4834
▁Interessen	-4835
face	-4836
▁Vertra	-4837
ball	-4838
amera	-4839
ovo	-4840
ande	-4841
▁schwer	-4842
lies	-4843
▁Liste	-4844
▁Sy	-4845
▁model	-4846
▁angem	-4847
▁nothing	-4848
▁Government	-4849
▁existing	-4850
▁intens	-4851
▁High	-4852
hlen	-4853
▁front	-4854
▁includes	-4855
▁Erweiterung	-4856
▁CD	-4857
▁Fuß	-4858
▁eth	-4859
▁reasons	-4860
▁Verbindung	-4861
licken	-4862
▁arg	-4863
▁oblig	-4864
ayer	-4865
esserung	-4866
▁gestellt	-4867
▁Kontrolle	-4868
▁lux	-4869
▁spr	-4870
▁parliament	-4871
▁Reform	-4872
▁Türkei	-4873
▁extens	-4874
▁bekommen	-4875
▁population	-4876
▁conflic	-4877
▁culture	-4878
ush	-4879
▁allows	-4880
▁Stabil	-4881
▁meinen	-4882
▁See	-4883
iddle	-4884
▁wichtigen	-4885
▁decisions	-4886
Re	-4887
▁choice	-4888
ills	-4889
▁committee	-4890
more	-4891
▁internet	-4892
▁received	-4893
▁objectives	-4894
itable	-4895
▁becom	-4896
▁verd	-4897
▁rund	-4898
termin	-4899
li	-4900
üsse	-4901
fluss	-4902
orten	-4903
▁gab	-4904
▁erinn	-4905
grat	-4906
▁Hol	-4907
rachen	-4908
▁umfassen	-4909
odell	-4910
mbol	-4911
iterran	-4912
▁commer	-4913
▁Strand	-4914
▁assess	-4915
ID	-4916
▁Einzel	-4917
▁liegen	-4918
▁Behörden	-4919
▁practice	-4920
▁$	-4921
▁related	-4922
temp	-4923
▁wunder	-4924
▁America	-4925
quis	-4926
▁Verpflicht	-4927
inden	-4928
uffer	-4929
▁move	-4930
▁Wettbewerbs	-4931
▁fail	-4932
▁values	-4933
ba	-4934
len	-4935
▁center	-4936
▁unseres	-4937
▁demonstr	-4938
▁agreements	-4939
▁satisf	-4940
▁Barcel	-4941
▁advant	-4942
alien	-4943
▁Home	-4944
▁Court	-4945
▁bleibt	-4946
▁applications	-4947
▁Che	-4948
▁Sup	-4949
▁media	-4950
▁Ausschusses	-4951
älle	-4952
istrat	-4953
▁holiday	-4954
▁performance	-4955
▁Cor	-4956
▁emer	-4957
nissen	-4958
gangenen	-4959
▁military	-4960
▁transfer	-4961
▁Konferenz	-4962
inne	-4963
▁bess	-4964
▁nahe	-4965
ennung	-4966
▁Kampf	-4967
▁jedes	-4968
zunehmen	-4969
▁regarding	-4970
▁PC	-4971
▁Thank	-4972
▁aware	-4973
▁English	-4974
▁Lux	-4975
▁consult	-4976
▁digital	-4977
Mail	-4978
jahr	-4979
▁harmon	-4980
una	-4981
pass	-4982
zeugen	-4983
▁spezie	-4984
affung	-4985
▁Now	-4986
ünschen	-4987
lant	-4988
bedingungen	-4989
SE	-4990
▁Notwend	-4991
▁verantwort	-4992
▁established	-4993
▁Mag	-4994
▁Volks	-4995
ological	-4996
.,	-4997
▁Volk	-4998
▁Augen	-4999
▁jobs	-5000
▁broad	-5001
▁simple	-5002
▁initi	-5003
▁Aufent	-5004
geschlossen	-5005
▁-,	-5006
arity	-5007
formen	-5008
dom	-5009
▁1999	-5010
▁conclus	-5011
▁Verordnung	-5012
▁lok	-5013
▁prim	-5014
▁Damit	-5015
▁plann	-5016
▁wegen	-5017
▁package	-5018
gesamt	-5019
eden	-5020
vious	-5021
▁wobei	-5022
iated	-5023
▁Pass	-5024
▁seems	-5025
ördern	-5026
vement	-5027
▁sag	-5028
pite	-5029
▁poor	-5030
essour	-5031
annte	-5032
▁body	-5033
▁wa	-5034
▁gestimmt	-5035
pected	-5036
osen	-5037
ying	-5038
▁search	-5039
oo	-5040
▁face	-5041
▁spend	-5042
▁Entschließung	-5043
struments	-5044
osed	-5045
ED	-5046
▁IT	-5047
▁Lisbon	-5048
▁unabhäng	-5049
ikanischen	-5050
erve	-5051
▁credit	-5052
▁+	-5053
▁Rel	-5054
▁warm	-5055
▁Forder	-5056
▁enthält	-5057
▁ganze	-5058
itness	-5059
▁image	-5060
▁agricultural	-5061
▁Ze	-5062
▁Serv	-5063
öhn	-5064
ason	-5065
▁capac	-5066
öst	-5067
▁huge	-5068
rab	-5069
▁mehrere	-5070
ico	-5071
ón	-5072
gef	-5073
uck	-5074
▁fran	-5075
▁erlaub	-5076
▁Nutzung	-5077
▁Gruppe	-5078
▁herr	-5079
ery	-5080
▁purch	-5081
such	-5082
▁Vis	-5083
▁Kop	-5084
▁Sant	-5085
brigen	-5086
▁sound	-5087
▁ganzen	-5088
icles	-5089
▁Wochen	-5090
lam	-5091
gn	-5092
▁richtig	-5093
▁hinsichtlich	-5094
▁rail	-5095
sitz	-5096
statt	-5097
▁Mor	-5098
▁Prior	-5099
mann	-5100
abon	-5101
▁cru	-5102
▁attack	-5103
imension	-5104
▁objective	-5105
▁below	-5106
▁Pan	-5107
▁Krise	-5108
▁einger	-5109
▁Here	-5110
▁22	-5111
▁Cons	-5112
▁Urlaub	-5113
▁Liss	-5114
▁industrial	-5115
▁pleas	-5116
▁party	-5117
▁Gree	-5118
teller	-5119
▁trotz	-5120
▁wonder	-5121
▁reports	-5122
▁Ober	-5123
▁Frankreich	-5124
ienste	-5125
este	-5126
ourn	-5127
▁equipment	-5128
schließend	-5129
▁28	-5130
äum	-5131
▁gerne	-5132
wide	-5133
chter	-5134
▁Veranst	-5135
▁Mitarbeiter	-5136
opping	-5137
▁ermöglichen	-5138
▁stop	-5139
▁Reise	-5140
▁files	-5141
▁wichtigsten	-5142
lla	-5143
lassen	-5144
▁leaders	-5145
▁benefit	-5146
▁keyword	-5147
▁Binnenmarkt	-5148
▁jud	-5149
uclear	-5150
▁Bitte	-5151
▁computer	-5152
▁sun	-5153
▁City	-5154
▁goods	-5155
bre	-5156
▁Macht	-5157
entwick	-5158
▁sense	-5159
▁treatment	-5160
▁Verbesserung	-5161
▁Bad	-5162
▁south	-5163
▁garden	-5164
undes	-5165
wertungen	-5166
▁ill	-5167
iveness	-5168
▁leben	-5169
▁Wachstum	-5170
wander	-5171
▁Auswahl	-5172
fonds	-5173
▁double	-5174
▁quickly	-5175
▁garant	-5176
▁beein	-5177
▁Affairs	-5178
▁achieved	-5179
itect	-5180
aving	-5181
▁Amend	-5182
▁schön	-5183
▁experien	-5184
Ver	-5185
ften	-5186
▁Fach	-5187
,000	-5188
stellungen	-5189
iko	-5190
▁Bef	-5191
VD	-5192
▁Sim	-5193
▁3.	-5194
▁Link	-5195
▁option	-5196
▁Club	-5197
▁indeed	-5198
▁Lissabon	-5199
▁recently	-5200
▁Anfang	-5201
erweise	-5202
▁East	-5203
erc	-5204
bung	-5205
▁Dan	-5206
▁note	-5207
▁Dokument	-5208
▁furn	-5209
....	-5210
gelt	-5211
▁vict	-5212
▁tw	-5213
▁carry	-5214
▁Verwendung	-5215
▁self	-5216
▁Insel	-5217
▁Global	-5218
▁beginning	-5219
ünsch	-5220
▁Imp	-5221
▁passen	-5222
▁nachhalt	-5223
▁!	-5224
▁red	-5225
mehr	-5226
ernen	-5227
▁congrat	-5228
▁Standard	-5229
▁engine	-5230
▁ruh	-5231
▁veh	-5232
▁durchge	-5233
▁efficient	-5234
▁governments	-5235
pid	-5236
kennen	-5237
▁los	-5238
otion	-5239
▁code	-5240
▁highly	-5241
ps	-5242
▁heut	-5243
▁contains	-5244
put	-5245
izien	-5246
▁Finally	-5247
▁popular	-5248
Fra	-5249
▁Notwendigkeit	-5250
ätigkeit	-5251
▁initiative	-5252
▁Gelegenheit	-5253
seit	-5254
▁spac	-5255
vorschriften	-5256
▁Ukra	-5257
▁verwenden	-5258
▁integration	-5259
haupt	-5260
▁whose	-5261
▁Imm	-5262
anzen	-5263
▁Innov	-5264
möglichkeit	-5265
▁nice	-5266
verständlich	-5267
istische	-5268
▁dialogue	-5269
▁everyone	-5270
▁frü	-5271
▁zeigen	-5272
aint	-5273
▁rat	-5274
▁lässt	-5275
▁Bud	-5276
▁Angebot	-5277
emb	-5278
▁comprom	-5279
▁equipped	-5280
▁500	-5281
▁obs	-5282
IL	-5283
▁einzig	-5284
▁Management	-5285
ams	-5286
▁exc	-5287
▁block	-5288
▁Ergebnisse	-5289
▁Berg	-5290
▁sent	-5291
ering	-5292
▁June	-5293
▁Gewalt	-5294
▁oil	-5295
▁völlig	-5296
aschinen	-5297
▁Material	-5298
▁Wahr	-5299
▁levels	-5300
▁super	-5301
▁Darüber	-5302
ley	-5303
sterreich	-5304
just	-5305
▁verbessern	-5306
▁click	-5307
stances	-5308
▁Barcelona	-5309
▁increased	-5310
▁Up	-5311
minister	-5312
OL	-5313
unt	-5314
▁similar	-5315
▁Some	-5316
▁agreed	-5317
alu	-5318
itel	-5319
▁Gebä	-5320
▁Ferien	-5321
▁direction	-5322
▁dre	-5323
40	-5324
organis	-5325
▁Amster	-5326
▁presented	-5327
▁principles	-5328
fortunately	-5329
▁series	-5330
▁exchange	-5331
▁Les	-5332
▁profit	-5333
lier	-5334
▁Chin	-5335
anner	-5336
imming	-5337
▁age	-5338
▁grund	-5339
▁kulture	-5340
▁correct	-5341
nern	-5342
fordert	-5343
will	-5344
PE	-5345
▁spielen	-5346
▁Social	-5347
▁ut	-5348
pose	-5349
▁Second	-5350
▁Golf	-5351
▁verg	-5352
▁Personal	-5353
▁stage	-5354
▁supply	-5355
▁schö	-5356
▁Solid	-5357
onse	-5358
▁Woche	-5359
▁Liefer	-5360
▁subsid	-5361
mor	-5362
▁Log	-5363
isted	-5364
▁Ho	-5365
hoben	-5366
▁Schaffung	-5367
▁successful	-5368
action	-5369
▁Bra	-5370
▁tele	-5371
▁asked	-5372
▁Kern	-5373
▁active	-5374
▁Beschäftigung	-5375
buch	-5376
▁office	-5377
iglich	-5378
▁Änderungen	-5379
örper	-5380
▁floor	-5381
▁Central	-5382
▁soziale	-5383
▁commitment	-5384
atic	-5385
iment	-5386
klus	-5387
▁eigene	-5388
RE	-5389
wise	-5390
▁Mich	-5391
▁Zeitpunkt	-5392
▁Anzahl	-5393
▁commercial	-5394
▁guten	-5395
bie	-5396
icien	-5397
ja	-5398
oppel	-5399
ausch	-5400
▁consumers	-5401
▁sex	-5402
▁Therefore	-5403
▁196	-5404
▁Akt	-5405
▁Während	-5406
▁reviews	-5407
▁Leg	-5408
▁stress	-5409
ängt	-5410
ützen	-5411
▁obtain	-5412
ature	-5413
aufen	-5414
▁Eigen	-5415
▁scient	-5416
▁gefähr	-5417
▁Tage	-5418
▁diskut	-5419
▁Ham	-5420
▁pan	-5421
▁fördern	-5422
▁bathroom	-5423
icherung	-5424
▁stra	-5425
▁gesamte	-5426
▁Jugend	-5427
▁eindeut	-5428
lass	-5429
▁Roman	-5430
▁expl	-5431
▁verfügen	-5432
▁Nieder	-5433
ßt	-5434
▁traff	-5435
▁carried	-5436
En	-5437
atell	-5438
abor	-5439
▁Further	-5440
utt	-5441
▁Voraus	-5442
▁tatsächlich	-5443
schw	-5444
▁frei	-5445
▁Zweit	-5446
▁promote	-5447
ahren	-5448
▁came	-5449
▁Ru	-5450
inger	-5451
träge	-5452
griffen	-5453
loyment	-5454
▁grundlegen	-5455
cks	-5456
▁Mic	-5457
..."	-5458
▁seek	-5459
▁matters	-5460
▁Lösungen	-5461
▁shown	-5462
▁innovative	-5463
▁higher	-5464
▁aspects	-5465
lace	-5466
▁Miss	-5467
▁rein	-5468
▁shows	-5469
▁mal	-5470
▁added	-5471
▁dynam	-5472
ierenden	-5473
▁Mac	-5474
▁Beschl	-5475
▁gleichen	-5476
▁zunächst	-5477
▁avoid	-5478
essourcen	-5479
apt	-5480
ilen	-5481
▁häuf	-5482
atast	-5483
▁materials	-5484
▁influen	-5485
▁Of	-5486
▁gelegen	-5487
▁künft	-5488
agn	-5489
▁behind	-5490
▁amendment	-5491
▁lik	-5492
▁thanks	-5493
▁Don	-5494
▁news	-5495
standen	-5496
▁Integration	-5497
mitt	-5498
spiel	-5499
▁Spain	-5500
▁rates	-5501
lös	-5502
xis	-5503
▁Agr	-5504
▁meinem	-5505
▁Mai	-5506
zeugt	-5507
▁Produktion	-5508
▁Arg	-5509
umb	-5510
▁dang	-5511
▁opportunities	-5512
cript	-5513
▁Einführung	-5514
ungss	-5515
pflich	-5516
▁Zw	-5517
äst	-5518
fahrt	-5519
▁geführt	-5520
ühm	-5521
Te	-5522
▁ständ	-5523
▁depend	-5524
▁gehören	-5525
▁größten	-5526
▁schriftlich	-5527
▁Pers	-5528
▁draft	-5529
▁verfüg	-5530
where	-5531
▁former	-5532
▁prepared	-5533
▁hotels	-5534
/9	-5535
▁six	-5536
owers	-5537
▁coll	-5538
▁speed	-5539
▁Herzen	-5540
ächt	-5541
▁Post	-5542
▁anzu	-5543
▁stor	-5544
▁äußerst	-5545
ends	-5546
▁Initiative	-5547
▁accommodation	-5548
▁bi	-5549
▁Män	-5550
▁Mehrheit	-5551
▁Wein	-5552
▁perhaps	-5553
▁Col	-5554
▁ten	-5555
▁Well	-5556
rup	-5557
▁Tat	-5558
▁vorhanden	-5559
▁=	-5560
▁Business	-5561
▁latest	-5562
▁Organisation	-5563
5,	-5564
▁possibility	-5565
és	-5566
ape	-5567
▁Debian	-5568
ufficient	-5569
▁Krieg	-5570
▁providing	-5571
Sch	-5572
IM	-5573
▁effects	-5574
▁Umgebung	-5575
▁erfolgreich	-5576
ously	-5577
▁lediglich	-5578
▁verstär	-5579
▁Juni	-5580
▁Russland	-5581
eff	-5582
▁af	-5583
▁Rot	-5584
▁Sum	-5585
▁nuclear	-5586
▁verstehen	-5587
icy	-5588
fält	-5589
astic	-5590
▁großer	-5591
▁creation	-5592
▁Sil	-5593
▁death	-5594
rechend	-5595
▁reached	-5596
▁90	-5597
▁Lat	-5598
greifen	-5599
▁entwickeln	-5600
▁Regierungen	-5601
▁Get	-5602
arily	-5603
okoll	-5604
▁König	-5605
▁Maß	-5606
gene	-5607
irit	-5608
▁erk	-5609
ounts	-5610
itting	-5611
▁Program	-5612
▁setting	-5613
▁considered	-5614
▁somit	-5615
▁leicht	-5616
▁26	-5617
▁Stellung	-5618
volle	-5619
▁hohen	-5620
▁billion	-5621
maßnahmen	-5622
▁pressure	-5623
ued	-5624
▁reduce	-5625
▁Aud	-5626
son	-5627
ology	-5628
▁Develop	-5629
▁submitted	-5630
ney	-5631
▁eig	-5632
▁summer	-5633
▁Inde	-5634
▁phys	-5635
▁Konfl	-5636
▁video	-5637
▁Wettbewerb	-5638
▁atmosph	-5639
▁relevant	-5640
gl	-5641
kraft	-5642
akter	-5643
zub	-5644
▁Familie	-5645
▁Net	-5646
artige	-5647
▁sustainable	-5648
▁easily	-5649
▁Erfahrung	-5650
otes	-5651
▁Convention	-5652
heben	-5653
unsch	-5654
▁size	-5655
▁Article	-5656
▁Install	-5657
▁condition	-5658
▁gives	-5659
▁response	-5660
uffet	-5661
▁actions	-5662
▁external	-5663
▁condu	-5664
▁Loc	-5665
stellt	-5666
▁hoff	-5667
▁Transport	-5668
▁enlargement	-5669
spe	-5670
▁limited	-5671
▁sorgen	-5672
usion	-5673
▁wirtschaftliche	-5674
▁Italy	-5675
▁300	-5676
▁review	-5677
▁verpflich	-5678
▁style	-5679
▁Lauf	-5680
▁Kommunik	-5681
▁choose	-5682
▁sofort	-5683
▁Kommissarin	-5684
▁York	-5685
ki	-5686
▁elekt	-5687
▁Kosovo	-5688
quare	-5689
▁Höhe	-5690
▁criter	-5691
▁balance	-5692
▁terra	-5693
▁Party	-5694
▁Ratspräsident	-5695
▁Republic	-5696
sy	-5697
▁Oct	-5698
▁property	-5699
uern	-5700
▁Oper	-5701
▁Aktion	-5702
▁gebracht	-5703
▁Amsterdam	-5704
▁à	-5705
ulgar	-5706
▁Dabei	-5707
▁gewährleisten	-5708
▁tell	-5709
▁Ents	-5710
▁deta	-5711
5.	-5712
▁Balk	-5713
istics	-5714
▁Informations	-5715
▁Dez	-5716
▁Rev	-5717
▁places	-5718
rang	-5719
▁else	-5720
▁Stad	-5721
▁Weiter	-5722
▁concept	-5723
▁anderer	-5724
emin	-5725
kommens	-5726
Be	-5727
arent	-5728
▁Eing	-5729
▁sites	-5730
▁Hinter	-5731
▁capacity	-5732
▁Gemeins	-5733
idel	-5734
itzen	-5735
estens	-5736
tent	-5737
▁geschlossen	-5738
▁70	-5739
▁exhib	-5740
iture	-5741
▁Komprom	-5742
creen	-5743
▁ernst	-5744
▁Cal	-5745
▁Freiheit	-5746
▁architect	-5747
eting	-5748
▁employe	-5749
▁assistance	-5750
▁vorgesehen	-5751
oz	-5752
▁Museum	-5753
adem	-5754
▁Dom	-5755
▁regular	-5756
▁Sicht	-5757
▁Folgen	-5758
▁Dinge	-5759
▁amer	-5760
iction	-5761
▁coming	-5762
▁Jed	-5763
▁x	-5764
▁prob	-5765
▁atmosphere	-5766
▁partner	-5767
uel	-5768
▁ähn	-5769
ibilities	-5770
▁www	-5771
▁Vereinbar	-5772
3.	-5773
▁fal	-5774
iles	-5775
ierter	-5776
▁Booking	-5777
▁Okt	-5778
▁Also	-5779
▁prepar	-5780
▁British	-5781
▁Aktivitäten	-5782
▁closed	-5783
▁priority	-5784
▁Neben	-5785
▁Bekämpfung	-5786
▁une	-5787
▁bestimmte	-5788
▁Standpunkt	-5789
sprün	-5790
▁Ke	-5791
▁gross	-5792
▁IN	-5793
ilos	-5794
▁display	-5795
▁Überein	-5796
iterranean	-5797
▁Kontakt	-5798
▁ausgestattet	-5799
▁foot	-5800
▁suffer	-5801
▁describ	-5802
industrie	-5803
▁details	-5804
▁Instrument	-5805
▁beteil	-5806
urr	-5807
▁cause	-5808
mented	-5809
▁leave	-5810
▁schle	-5811
itzer	-5812
▁decided	-5813
roat	-5814
ieg	-5815
lefon	-5816
▁Sprache	-5817
ausschuss	-5818
resp	-5819
▁vern	-5820
etimes	-5821
bus	-5822
▁neuer	-5823
▁ground	-5824
3,	-5825
▁meines	-5826
▁tragen	-5827
▁register	-5828
▁gewor	-5829
▁Erachten	-5830
iedr	-5831
▁highl	-5832
mission	-5833
die	-5834
▁effe	-5835
▁transparen	-5836
▁dep	-5837
▁forms	-5838
▁Erachtens	-5839
▁prot	-5840
▁Spa	-5841
ürf	-5842
'.	-5843
▁Africa	-5844
▁supported	-5845
▁December	-5846
▁green	-5847
▁zahlreiche	-5848
▁solchen	-5849
iately	-5850
▁remains	-5851
▁Stunden	-5852
▁allowed	-5853
rief	-5854
▁Last	-5855
▁decl	-5856
▁rule	-5857
▁zweite	-5858
bewertungen	-5859
▁außerdem	-5860
▁neigh	-5861
▁insgesamt	-5862
▁announ	-5863
▁funding	-5864
▁restaurants	-5865
▁Bestimmungen	-5866
▁Fed	-5867
▁March	-5868
ündet	-5869
▁Open	-5870
▁brought	-5871
anischen	-5872
▁ko	-5873
▁erheb	-5874
▁virt	-5875
▁train	-5876
▁construction	-5877
▁Vertrags	-5878
▁sport	-5879
▁erster	-5880
selves	-5881
▁Italian	-5882
terne	-5883
atastrop	-5884
▁mobile	-5885
▁discover	-5886
ützt	-5887
cle	-5888
bert	-5889
ehen	-5890
rehens	-5891
▁message	-5892
▁''	-5893
ghan	-5894
stitute	-5895
▁Italien	-5896
▁fig	-5897
▁scheint	-5898
▁dadurch	-5899
PL	-5900
lav	-5901
▁deep	-5902
▁entde	-5903
▁Medien	-5904
▁Preise	-5905
▁instead	-5906
▁vorlie	-5907
▁lic	-5908
▁Stelle	-5909
rid	-5910
▁1998	-5911
▁sagte	-5912
igungen	-5913
▁zweiten	-5914
ategories	-5915
▁erschein	-5916
wertung	-5917
▁Af	-5918
▁versuchen	-5919
▁Jahrhundert	-5920
▁administrat	-5921
▁woll	-5922
▁Aspe	-5923
legenheiten	-5924
▁Opt	-5925
▁französ	-5926
inal	-5927
stein	-5928
▁Staat	-5929
▁Fehler	-5930
▁erweit	-5931
▁2001	-5932
▁largest	-5933
setzungen	-5934
▁purpose	-5935
hindern	-5936
▁island	-5937
▁consumer	-5938
▁Adr	-5939
▁dring	-5940
▁WTO	-5941
page	-5942
schnitt	-5943
▁Gruppen	-5944
▁Ukraine	-5945
▁sus	-5946
▁friends	-5947
uert	-5948
▁Western	-5949
▁repe	-5950
▁renov	-5951
▁2002	-5952
unternehmen	-5953
▁regulations	-5954
wa	-5955
▁Alt	-5956
zeuge	-5957
▁Gefahr	-5958
ugs	-5959
endes	-5960
▁Wohl	-5961
▁bestimmten	-5962
▁exec	-5963
▁conference	-5964
▁King	-5965
gesellschaft	-5966
yond	-5967
▁movement	-5968
▁Stär	-5969
▁Privat	-5970
▁January	-5971
▁Fortschritte	-5972
--	-5973
▁apartment	-5974
▁limit	-5975
▁Unterk	-5976
▁Gal	-5977
geber	-5978
▁Bildung	-5979
▁alten	-5980
▁allein	-5981
▁erhält	-5982
▁ord	-5983
▁regards	-5984
▁Enter	-5985
▁gemäß	-5986
▁ändern	-5987
rec	-5988
▁Nur	-5989
▁chem	-5990
▁disp	-5991
▁Jo	-5992
▁Sl	-5993
▁pleased	-5994
▁discussion	-5995
▁obwohl	-5996
▁airport	-5997
▁interesting	-5998
hil	-5999
here	-6000
▁Har	-6001
▁Basis	-6002
▁hohe	-6003
porate	-6004
▁genießen	-6005
▁hy	-6006
kont	-6007
▁dut	-6008
ournal	-6009
▁safe	-6010
altungs	-6011
ategorien	-6012
ato	-6013
▁Di	-6014
cement	-6015
▁thous	-6016
iciency	-6017
merksamkeit	-6018
▁October	-6019
▁Oktober	-6020
▁obvious	-6021
▁einzige	-6022
▁unterst	-6023
▁creating	-6024
▁wid	-6025
uis	-6026
▁exact	-6027
▁determin	-6028
Pl	-6029
▁Mart	-6030
▁hous	-6031
▁independent	-6032
besch	-6033
▁Arbeitnehmer	-6034
▁bestät	-6035
▁ways	-6036
11	-6037
▁liberal	-6038
▁started	-6039
▁Ed	-6040
▁Aufmerksamkeit	-6041
ritts	-6042
▁Site	-6043
▁became	-6044
ena	-6045
▁medium	-6046
▁aufgenommen	-6047
▁Prü	-6048
reibung	-6049
▁schließlich	-6050
▁vergangenen	-6051
▁host	-6052
▁fishing	-6053
▁variety	-6054
▁provisions	-6055
angt	-6056
annen	-6057
▁Services	-6058
Ar	-6059
▁produce	-6060
9.	-6061
▁div	-6062
▁fell	-6063
▁evalu	-6064
▁status	-6065
▁Every	-6066
▁mor	-6067
▁measure	-6068
▁produced	-6069
▁procedures	-6070
▁konnten	-6071
▁quiet	-6072
▁Grenzen	-6073
see	-6074
ämt	-6075
mäßig	-6076
80	-6077
räfte	-6078
▁Städ	-6079
▁morgen	-6080
▁Verkehrs	-6081
▁fehl	-6082
möglichkeiten	-6083
ägt	-6084
Fraktion	-6085
▁einschließlich	-6086
▁bein	-6087
▁Down	-6088
▁board	-6089
▁fix	-6090
prises	-6091
▁fisher	-6092
▁jün	-6093
legung	-6094
▁steps	-6095
▁zentr	-6096
▁Dezember	-6097
▁expla	-6098
▁Kan	-6099
Mit	-6100
▁Ged	-6101
▁Today	-6102
conomic	-6103
▁contribution	-6104
▁Entscheidungen	-6105
▁north	-6106
NG	-6107
OT	-6108
▁Cap	-6109
▁Erklärung	-6110
▁Portugal	-6111
lare	-6112
ienten	-6113
▁Nationen	-6114
orgung	-6115
▁Ter	-6116
▁Erzeug	-6117
▁reading	-6118
chsel	-6119
▁Film	-6120
▁beschäft	-6121
▁got	-6122
arenz	-6123
▁Punkte	-6124
▁Flughafen	-6125
▁stability	-6126
“,	-6127
▁Organ	-6128
▁Berichts	-6129
▁vertreten	-6130
isters	-6131
▁Benutzer	-6132
▁konzentr	-6133
▁study	-6134
▁Landwirtschaft	-6135
▁compromise	-6136
itude	-6137
▁betroffen	-6138
ader	-6139
stag	-6140
anlage	-6141
▁leisten	-6142
▁operation	-6143
ades	-6144
▁Democ	-6145
▁Tex	-6146
▁Em	-6147
▁Pap	-6148
▁Sinne	-6149
▁Wider	-6150
▁effort	-6151
▁März	-6152
▁Gesundheits	-6153
▁Sm	-6154
letzt	-6155
▁relationship	-6156
▁rich	-6157
▁leider	-6158
▁Diskussion	-6159
2)	-6160
▁Bereiche	-6161
ifik	-6162
ateral	-6163
▁gee	-6164
▁labour	-6165
▁eingesetzt	-6166
EP	-6167
ero	-6168
enntnis	-6169
24	-6170
isp	-6171
länd	-6172
Office	-6173
zone	-6174
▁relation	-6175
entlichkeit	-6176
25	-6177
aft	-6178
etary	-6179
so	-6180
▁Anwend	-6181
▁Gipf	-6182
▁Zeich	-6183
▁Unternehmens	-6184
▁Anforderungen	-6185
▁eigentlich	-6186
dienst	-6187
▁Server	-6188
▁erwarten	-6189
▁statement	-6190
altet	-6191
FR	-6192
itial	-6193
▁Mult	-6194
cret	-6195
oder	-6196
▁purs	-6197
▁task	-6198
ronic	-6199
▁accep	-6200
ira	-6201
▁giving	-6202
▁san	-6203
falt	-6204
▁village	-6205
bor	-6206
▁Spanish	-6207
▁geworden	-6208
▁keiner	-6209
▁written	-6210
▁pen	-6211
ivity	-6212
▁Real	-6213
▁hervorra	-6214
▁Vorschriften	-6215
ded	-6216
▁Metho	-6217
forderung	-6218
coming	-6219
▁regel	-6220
▁Rights	-6221
▁ourselves	-6222
ibil	-6223
▁klein	-6224
▁forder	-6225
▁Schwier	-6226
▁section	-6227
▁Ost	-6228
.)	-6229
lekt	-6230
▁source	-6231
▁Hung	-6232
▁Neu	-6233
▁numerous	-6234
▁Camp	-6235
▁Bilder	-6236
▁During	-6237
lichkeiten	-6238
uls	-6239
▁berühm	-6240
fun	-6241
rats	-6242
no	-6243
▁film	-6244
▁Prinzip	-6245
▁Ansatz	-6246
▁kit	-6247
▁dise	-6248
lines	-6249
▁Abend	-6250
▁Exper	-6251
cription	-6252
▁instrument	-6253
▁brit	-6254
▁bra	-6255
▁Auftrag	-6256
dra	-6257
polit	-6258
▁tä	-6259
▁Star	-6260
▁überw	-6261
▁won	-6262
▁Cost	-6263
▁Schweiz	-6264
▁Off	-6265
▁interpre	-6266
▁Transparenz	-6267
▁activity	-6268
▁distance	-6269
▁Ere	-6270
overty	-6271
▁instruments	-6272
cker	-6273
▁Det	-6274
▁Küche	-6275
▁Bundes	-6276
▁launch	-6277
gy	-6278
▁compon	-6279
▁Systems	-6280
▁Tagesordnung	-6281
iete	-6282
▁loss	-6283
▁dat	-6284
▁Free	-6285
▁damage	-6286
ground	-6287
▁documents	-6288
▁1997	-6289
▁Öffentlichkeit	-6290
▁Juli	-6291
▁finally	-6292
ühungen	-6293
▁wine	-6294
▁Gott	-6295
▁appe	-6296
▁emiss	-6297
▁häufig	-6298
oker	-6299
▁gas	-6300
öffnet	-6301
▁legislative	-6302
zwe	-6303
ls	-6304
▁Auto	-6305
▁Belg	-6306
▁grat	-6307
▁worth	-6308
▁Präsidenten	-6309
▁Flor	-6310
▁highest	-6311
▁genommen	-6312
▁gele	-6313
▁gran	-6314
▁kennen	-6315
▁Many	-6316
▁Computer	-6317
▁unmittel	-6318
▁kannst	-6319
ought	-6320
▁eleg	-6321
wind	-6322
▁Inn	-6323
engen	-6324
▁base	-6325
▁firm	-6326
▁ihres	-6327
▁structure	-6328
bin	-6329
kosten	-6330
▁Linux	-6331
fordern	-6332
▁Bulgar	-6333
▁wenige	-6334
▁suchen	-6335
zeichnung	-6336
▁Java	-6337
▁Sommer	-6338
▁Nr	-6339
▁edit	-6340
▁mountain	-6341
▁stock	-6342
!!	-6343
enew	-6344
ST	-6345
▁violence	-6346
▁angesichts	-6347
works	-6348
freund	-6349
▁Armut	-6350
▁path	-6351
▁conven	-6352
mö	-6353
▁benötigen	-6354
▁erneut	-6355
▁Although	-6356
▁Development	-6357
▁perfe	-6358
zuführen	-6359
EM	-6360
bezogen	-6361
▁agenda	-6362
▁mem	-6363
wesen	-6364
utter	-6365
mosphäre	-6366
▁ursprün	-6367
back	-6368
▁Anfrage	-6369
▁Aufenthalt	-6370
▁ign	-6371
▁threat	-6372
▁employees	-6373
▁transparency	-6374
▁gain	-6375
▁She	-6376
▁July	-6377
▁Heute	-6378
▁weder	-6379
▁challenges	-6380
▁types	-6381
▁historical	-6382
orning	-6383
▁useful	-6384
orgt	-6385
cture	-6386
▁drive	-6387
▁minor	-6388
▁criteria	-6389
▁Je	-6390
idge	-6391
▁Empfehl	-6392
▁word	-6393
▁Centre	-6394
▁elections	-6395
▁fall	-6396
▁Villa	-6397
▁Afghan	-6398
▁Solidar	-6399
elten	-6400
teuer	-6401
▁Meine	-6402
▁CO	-6403
▁Mann	-6404
▁gefunden	-6405
▁wichtiger	-6406
▁Hel	-6407
▁niedr	-6408
▁aktuellen	-6409
ummer	-6410
▁processes	-6411
▁cy	-6412
▁Koh	-6413
▁Mobil	-6414
zt	-6415
▁4.	-6416
leitet	-6417
▁Untersuch	-6418
▁constant	-6419
▁Investitionen	-6420
▁comprehens	-6421
▁prefer	-6422
▁übrigen	-6423
▁diejenigen	-6424
▁Video	-6425
▁drink	-6426
ierende	-6427
▁Januar	-6428
▁elements	-6429
▁Tradition	-6430
▁Rede	-6431
▁Auffassung	-6432
ücken	-6433
▁late	-6434
ören	-6435
anted	-6436
house	-6437
hesion	-6438
▁beyond	-6439
▁DVD	-6440
▁legit	-6441
▁Sache	-6442
▁Beteil	-6443
▁Veränder	-6444
▁Kur	-6445
ograf	-6446
▁Agrar	-6447
▁halte	-6448
▁sieht	-6449
▁Beginn	-6450
▁Term	-6451
aign	-6452
▁ult	-6453
▁Firma	-6454
ammlung	-6455
▁colleagues	-6456
▁bem	-6457
▁round	-6458
▁parking	-6459
ugg	-6460
ieht	-6461
Europ	-6462
▁Sign	-6463
▁tools	-6464
▁freund	-6465
asion	-6466
▁lower	-6467
▁apartments	-6468
leb	-6469
▁ski	-6470
▁phot	-6471
▁persons	-6472
▁langfrist	-6473
▁durchgeführt	-6474
▁applied	-6475
ais	-6476
Un	-6477
achtung	-6478
▁depart	-6479
▁Vorsitz	-6480
▁Furthermore	-6481
ängen	-6482
richten	-6483
▁treffen	-6484
UR	-6485
eks	-6486
iker	-6487
zusch	-6488
▁Innen	-6489
äte	-6490
▁Ereign	-6491
▁bezüglich	-6492
ört	-6493
▁Mer	-6494
urance	-6495
▁immediately	-6496
▁distribution	-6497
▁west	-6498
▁öffentliche	-6499
uche	-6500
▁mis	-6501
front	-6502
▁coast	-6503
▁equal	-6504
ilosoph	-6505
▁payment	-6506
▁entsprechend	-6507
▁forces	-6508
▁reality	-6509
▁kil	-6510
▁tim	-6511
wortern	-6512
▁benefits	-6513
folge	-6514
▁reich	-6515
wser	-6516
▁dein	-6517
▁integrated	-6518
▁affect	-6519
ufe	-6520
▁Projekte	-6521
▁Linie	-6522
▁happy	-6523
anging	-6524
▁consist	-6525
▁zehn	-6526
▁observ	-6527
▁Gründen	-6528
▁überprü	-6529
▁analysis	-6530
▁offering	-6531
▁Mediterranean	-6532
▁Straßen	-6533
head	-6534
▁las	-6535
ral	-6536
▁sonst	-6537
▁vorge	-6538
▁Änderung	-6539
▁geschaffen	-6540
▁Bahn	-6541
▁Regeln	-6542
drücklich	-6543
▁University	-6544
▁bringt	-6545
70	-6546
▁bad	-6547
▁crucial	-6548
scheinlich	-6549
▁Gas	-6550
▁conflict	-6551
▁Tagen	-6552
▁Bedürf	-6553
▁europäischer	-6554
view	-6555
aktion	-6556
▁offered	-6557
schließen	-6558
▁veröffentlich	-6559
▁paid	-6560
legation	-6561
hilfe	-6562
▁consequences	-6563
▁pal	-6564
ford	-6565
▁höher	-6566
▁helpful	-6567
▁hil	-6568
▁TH	-6569
▁Monaten	-6570
▁Lebensmittel	-6571
▁illegal	-6572
▁thought	-6573
▁verm	-6574
▁Präsidentschaft	-6575
▁poverty	-6576
▁Are	-6577
▁mut	-6578
▁Your	-6579
iability	-6580
▁Ta	-6581
▁perman	-6582
▁Ressourcen	-6583
▁Ist	-6584
▁unbe	-6585
▁Even	-6586
▁Restaurants	-6587
23	-6588
▁plant	-6589
▁Vertreter	-6590
izin	-6591
▁requires	-6592
▁wissenschaft	-6593
▁Zentral	-6594
▁beitragen	-6595
▁vergessen	-6596
▁hätten	-6597
vors	-6598
zehn	-6599
entur	-6600
phone	-6601
▁Milliar	-6602
▁194	-6603
▁daily	-6604
6,	-6605
▁sales	-6606
▁caused	-6607
▁kur	-6608
ogle	-6609
▁emb	-6610
▁Iraq	-6611
▁monitoring	-6612
▁Spezial	-6613
▁Directive	-6614
ares	-6615
park	-6616
sych	-6617
▁saying	-6618
sprü	-6619
▁Fällen	-6620
9,	-6621
▁unemp	-6622
▁humanit	-6623
ya	-6624
kom	-6625
leistung	-6626
▁exception	-6627
▁verhindern	-6628
▁krit	-6629
▁entsprechenden	-6630
▁relating	-6631
IA	-6632
▁Bemühungen	-6633
öße	-6634
schlag	-6635
sprozess	-6636
▁zeit	-6637
▁ideas	-6638
▁Ba	-6639
▁hom	-6640
▁ey	-6641
ym	-6642
spricht	-6643
▁Nachbar	-6644
obby	-6645
▁weak	-6646
▁hinzu	-6647
▁Palest	-6648
ocol	-6649
ünde	-6650
▁paar	-6651
cia	-6652
▁Kredit	-6653
▁infrastru	-6654
▁Ol	-6655
fühl	-6656
▁buy	-6657
▁waste	-6658
▁früher	-6659
▁alternative	-6660
▁ol	-6661
cape	-6662
▁erfahren	-6663
▁sometimes	-6664
▁schl	-6665
▁server	-6666
▁ban	-6667
▁curren	-6668
▁solidarity	-6669
▁mü	-6670
pective	-6671
▁Test	-6672
▁getan	-6673
▁Bürgern	-6674
nungen	-6675
▁beant	-6676
▁implemented	-6677
▁undert	-6678
▁5.	-6679
▁Gast	-6680
▁jüng	-6681
vere	-6682
▁van	-6683
▁Folge	-6684
tellten	-6685
▁ausgezeich	-6686
DF	-6687
strumente	-6688
▁spirit	-6689
▁anderem	-6690
rü	-6691
angeb	-6692
▁goes	-6693
schö	-6694
▁Atmosphäre	-6695
▁hear	-6696
▁Altern	-6697
altungen	-6698
▁growing	-6699
▁starting	-6700
4,	-6701
▁Völk	-6702
ücht	-6703
▁spee	-6704
▁Finanzierung	-6705
▁har	-6706
▁eher	-6707
▁renew	-6708
▁behandelt	-6709
▁End	-6710
▁genannten	-6711
ifel	-6712
▁charm	-6713
▁weeks	-6714
▁vorher	-6715
▁ziehen	-6716
▁maximum	-6717
wart	-6718
▁Val	-6719
▁published	-6720
▁Mos	-6721
estic	-6722
▁Wunsch	-6723
▁35	-6724
rosoft	-6725
▁teach	-6726
▁frequ	-6727
▁Gerichts	-6728
craft	-6729
ibe	-6730
üge	-6731
▁sechs	-6732
ione	-6733
gewiesen	-6734
▁historic	-6735
▁lives	-6736
▁Winter	-6737
▁mensch	-6738
hafte	-6739
▁advantage	-6740
oon	-6741
iveau	-6742
▁begrüße	-6743
▁morning	-6744
losen	-6745
▁»	-6746
afe	-6747
▁pie	-6748
▁Bürgerinnen	-6749
ola	-6750
▁sufficient	-6751
ungsver	-6752
othe	-6753
▁warum	-6754
▁shopping	-6755
▁Gest	-6756
▁nimmt	-6757
▁doubt	-6758
▁reduction	-6759
based	-6760
▁Human	-6761
▁clients	-6762
▁Security	-6763
hold	-6764
ünstler	-6765
▁accordance	-6766
bas	-6767
ischem	-6768
▁Dritt	-6769
▁erfolgt	-6770
theless	-6771
fo	-6772
▁partnership	-6773
utive	-6774
ula	-6775
▁sports	-6776
▁Public	-6777
ünsche	-6778
▁Betrieb	-6779
ordination	-6780
▁Ak	-6781
▁Republik	-6782
{{	-6783
▁usw	-6784
▁mitt	-6785
▁gerecht	-6786
▁congratulate	-6787
programm	-6788
vis	-6789
▁Las	-6790
▁Sitzung	-6791
▁Aufgaben	-6792
PS	-6793
ürger	-6794
▁präsent	-6795
▁Behandlung	-6796
▁Austria	-6797
▁erklärt	-6798
▁organisations	-6799
▁urg	-6800
▁ausreich	-6801
▁operating	-6802
▁Vergangen	-6803
▁practical	-6804
▁2,	-6805
▁fordern	-6806
▁Forschungs	-6807
▁tomor	-6808
▁Erfahrungen	-6809
▁Stock	-6810
fläche	-6811
ichern	-6812
frastruktur	-6813
schreit	-6814
▁syn	-6815
atform	-6816
▁tomorrow	-6817
▁Amendment	-6818
▁rapid	-6819
▁secure	-6820
▁symbol	-6821
▁initial	-6822
▁campaign	-6823
▁versucht	-6824
▁Erd	-6825
▁street	-6826
▁́	-6827
itten	-6828
▁machine	-6829
▁options	-6830
mus	-6831
▁Ess	-6832
izienz	-6833
esellschaften	-6834
änge	-6835
▁Cop	-6836
▁Ven	-6837
▁Hal	-6838
▁ded	-6839
▁hor	-6840
icken	-6841
▁günst	-6842
▁export	-6843
▁außerhalb	-6844
▁adopt	-6845
▁Center	-6846
▁ones	-6847
▁Grand	-6848
▁Verteid	-6849
▁minimum	-6850
▁Mand	-6851
▁despite	-6852
▁überhaupt	-6853
zielle	-6854
▁größer	-6855
▁größte	-6856
▁meaning	-6857
▁languages	-6858
▁Id	-6859
▁Nacht	-6860
6.	-6861
▁Aller	-6862
▁interested	-6863
CO	-6864
▁Bot	-6865
atterin	-6866
▁anything	-6867
▁pictures	-6868
▁swimming	-6869
▁Natürlich	-6870
SS	-6871
▁Bu	-6872
ichert	-6873
4.	-6874
▁Kn	-6875
▁wach	-6876
▁players	-6877
▁verpflichtet	-6878
▁Gef	-6879
▁sämt	-6880
▁begin	-6881
▁Terrorismus	-6882
▁welches	-6883
▁challenge	-6884
ius	-6885
▁Mass	-6886
▁lines	-6887
▁Fäh	-6888
▁pain	-6889
▁Inhalt	-6890
▁Gebäude	-6891
▁worldwide	-6892
▁rele	-6893
▁extent	-6894
II	-6895
▁Dav	-6896
▁bill	-6897
▁modified	-6898
▁technologies	-6899
▁Verl	-6900
▁jen	-6901
▁remov	-6902
▁advert	-6903
▁border	-6904
standing	-6905
▁Beruf	-6906
▁Initi	-6907
▁circum	-6908
ret	-6909
▁seines	-6910
▁Hoff	-6911
▁critic	-6912
▁PH	-6913
▁wr	-6914
grenz	-6915
▁uner	-6916
LA	-6917
▁sectors	-6918
▁probably	-6919
ids	-6920
▁While	-6921
▁select	-6922
▁gewesen	-6923
▁respond	-6924
▁reference	-6925
▁NAT	-6926
▁methods	-6927
▁erfüllen	-6928
hers	-6929
sam	-6930
▁Mc	-6931
▁Spanien	-6932
▁stärker	-6933
ado	-6934
ategie	-6935
We	-6936
▁Hy	-6937
▁verantwortlich	-6938
book	-6939
ulated	-6940
igation	-6941
▁absolutely	-6942
▁Anstr	-6943
▁Vergangenheit	-6944
imed	-6945
▁Del	-6946
gruppe	-6947
▁stets	-6948
▁angemessen	-6949
▁anti	-6950
verage	-6951
▁Microsoft	-6952
pool	-6953
▁Conference	-6954
oke	-6955
▁Tem	-6956
▁John	-6957
▁offiz	-6958
▁comprehensive	-6959
▁Rats	-6960
▁folgen	-6961
▁ful	-6962
ktive	-6963
▁Menschenrechts	-6964
▁sal	-6965
board	-6966
▁zuständ	-6967
▁efficiency	-6968
▁visitors	-6969
▁zahlreichen	-6970
alyse	-6971
▁recon	-6972
▁Minder	-6973
iding	-6974
▁games	-6975
stitutional	-6976
▁berücksichtigt	-6977
▁cert	-6978
▁ready	-6979
▁staat	-6980
▁Schwierigkeiten	-6981
zy	-6982
▁lands	-6983
▁counter	-6984
▁kam	-6985
▁chance	-6986
▁Pet	-6987
▁release	-6988
▁betreff	-6989
ränkt	-6990
▁vital	-6991
▁Tier	-6992
▁bedroom	-6993
▁Eas	-6994
reland	-6995
zeiten	-6996
▁selection	-6997
pack	-6998
ällt	-6999
vollen	-7000
▁restr	-7001
karte	-7002
izing	-7003
▁Werte	-7004
▁stimmen	-7005
▁unbed	-7006
▁Ac	-7007
▁besondere	-7008
”.	-7009
▁Gel	-7010
▁Green	-7011
▁voting	-7012
IV	-7013
▁Est	-7014
▁Herz	-7015
▁folgt	-7016
▁Gran	-7017
▁wanted	-7018
▁modernen	-7019
erkennung	-7020
▁vollständig	-7021
Die	-7022
▁Praxis	-7023
▁farmers	-7024
15	-7025
▁cast	-7026
▁sav	-7027
▁ehem	-7028
▁Lassen	-7029
▁Dat	-7030
▁Islam	-7031
▁arrange	-7032
▁eingeb	-7033
▁einheit	-7034
▁remember	-7035
▁began	-7036
▁Gold	-7037
▁genug	-7038
itation	-7039
▁Chance	-7040
ION	-7041
gesetz	-7042
▁technischen	-7043
▁Lang	-7044
▁11.	-7045
▁bur	-7046
▁competit	-7047
▁Protokoll	-7048
▁scientific	-7049
▁Technologie	-7050
▁Angelegenheit	-7051
ächen	-7052
abkommen	-7053
▁Ireland	-7054
▁Vergleich	-7055
▁Opfer	-7056
▁motor	-7057
▁Airport	-7058
▁Aspekte	-7059
tempt	-7060
ologie	-7061
▁enorm	-7062
▁exerc	-7063
▁Doppel	-7064
▁trying	-7065
▁bessere	-7066
▁terrorism	-7067
itch	-7068
▁Start	-7069
losigkeit	-7070
bit	-7071
how	-7072
iant	-7073
ifically	-7074
}}	-7075
▁overall	-7076
▁accepted	-7077
▁Regierungs	-7078
▁valid	-7079
legten	-7080
▁Frankf	-7081
▁Berat	-7082
▁calls	-7083
▁allgemeinen	-7084
meer	-7085
künft	-7086
▁gemein	-7087
▁Einwander	-7088
anc	-7089
▁verab	-7090
/0	-7091
▁blo	-7092
▁transparent	-7093
omb	-7094
▁powers	-7095
▁richtige	-7096
▁effiz	-7097
▁Google	-7098
▁anders	-7099
▁verkauf	-7100
▁historischen	-7101
▁heutigen	-7102
▁SM	-7103
▁fant	-7104
▁erinnern	-7105
iell	-7106
▁beträ	-7107
▁Gene	-7108
▁Waren	-7109
anda	-7110
▁lost	-7111
▁italien	-7112
▁jeweiligen	-7113
poses	-7114
▁expressed	-7115
▁Zivil	-7116
▁email	-7117
▁Chinese	-7118
▁apprec	-7119
▁slow	-7120
▁Hil	-7121
5-0	-7122
▁Dazu	-7123
▁heav	-7124
▁jähr	-7125
▁heard	-7126
▁expert	-7127
▁folgenden	-7128
12	-7129
hilfen	-7130
ichtlich	-7131
▁Liberal	-7132
▁wählen	-7133
▁Hinsicht	-7134
▁Generation	-7135
▁Voll	-7136
▁Schritte	-7137
akte	-7138
▁Play	-7139
ämpfen	-7140
▁listen	-7141
SP	-7142
▁Garten	-7143
▁walking	-7144
lim	-7145
affe	-7146
figur	-7147
isely	-7148
▁Prem	-7149
▁getroffen	-7150
▁les	-7151
▁influence	-7152
urb	-7153
aters	-7154
▁fine	-7155
1)	-7156
▁unten	-7157
itts	-7158
▁player	-7159
▁Zweitens	-7160
▁schützen	-7161
▁persönlichen	-7162
wel	-7163
chtet	-7164
▁lies	-7165
▁Swiss	-7166
▁Parteien	-7167
▁195	-7168
▁Krank	-7169
▁Eigent	-7170
▁erlaubt	-7171
enk	-7172
▁Viele	-7173
▁changed	-7174
▁strategic	-7175
▁processing	-7176
▁«	-7177
▁Mess	-7178
▁Spieler	-7179
▁demands	-7180
▁accession	-7181
las	-7182
atalog	-7183
▁verurs	-7184
ustausch	-7185
▁zweit	-7186
▁Solidarität	-7187
▁).	-7188
▁Kapital	-7189
▁separate	-7190
▁darstellt	-7191
▁businesses	-7192
enze	-7193
tert	-7194
▁jun	-7195
▁prü	-7196
▁NATO	-7197
▁decor	-7198
▁Firmen	-7199
▁gek	-7200
▁ris	-7201
nungs	-7202
▁Soll	-7203
gehend	-7204
▁reflect	-7205
▁initiatives	-7206
▁fields	-7207
▁raised	-7208
▁borders	-7209
▁Download	-7210
amin	-7211
▁150	-7212
bezieh	-7213
▁honour	-7214
▁tourist	-7215
▁substant	-7216
▁eindeutig	-7217
star	-7218
▁Dann	-7219
barer	-7220
▁bald	-7221
▁anerk	-7222
vorsitz	-7223
▁Allerdings	-7224
▁lay	-7225
▁sil	-7226
nel	-7227
▁genu	-7228
gruppen	-7229
▁candid	-7230
ulations	-7231
▁elegant	-7232
bum	-7233
▁tät	-7234
▁fear	-7235
▁Only	-7236
▁komp	-7237
▁Gespr	-7238
▁wiederhol	-7239
enh	-7240
▁track	-7241
▁zukünft	-7242
▁manufactur	-7243
Pr	-7244
▁Bal	-7245
▁fresh	-7246
▁ausschließlich	-7247
gült	-7248
▁Ord	-7249
▁upd	-7250
stoffe	-7251
sprechen	-7252
▁zumindest	-7253
▁Cy	-7254
▁cas	-7255
▁automatisch	-7256
fence	-7257
▁Milliarden	-7258
▁Sen	-7259
▁coup	-7260
indungen	-7261
werte	-7262
▁trip	-7263
▁Pla	-7264
eignet	-7265
▁befür	-7266
▁proceed	-7267
▁Einrichtung	-7268
izes	-7269
▁Anges	-7270
▁photo	-7271
▁Sonder	-7272
▁target	-7273
▁erwartet	-7274
',	-7275
▁beginnen	-7276
EG	-7277
▁simpl	-7278
▁Sü	-7279
quem	-7280
▁Prä	-7281
▁Mitte	-7282
▁Hostels	-7283
gere	-7284
▁namely	-7285
▁opening	-7286
▁rom	-7287
▁UK	-7288
last	-7289
lose	-7290
handel	-7291
▁Einige	-7292
▁images	-7293
▁spezif	-7294
▁representatives	-7295
rieb	-7296
scht	-7297
▁cohesion	-7298
▁Landwir	-7299
▁insp	-7300
lemente	-7301
ifizierung	-7302
ziert	-7303
▁club	-7304
▁Obwohl	-7305
▁mainly	-7306
▁Vier	-7307
▁angene	-7308
▁Erstens	-7309
▁Ang	-7310
▁Nun	-7311
▁Sam	-7312
▁News	-7313
▁bitten	-7314
▁innovation	-7315
di	-7316
zul	-7317
▁Modell	-7318
▁concentr	-7319
▁Vertrauen	-7320
19	-7321
tere	-7322
▁Stellen	-7323
▁gesehen	-7324
//	-7325
abr	-7326
ätzlich	-7327
▁improved	-7328
▁Afghanistan	-7329
▁Falle	-7330
13	-7331
wes	-7332
▁Tal	-7333
raten	-7334
▁Flex	-7335
▁kitchen	-7336
▁Secondly	-7337
▁deutschen	-7338
▁Verwaltung	-7339
▁Angelegenheiten	-7340
▁tick	-7341
▁Mün	-7342
▁glo	-7343
▁evening	-7344
▁länger	-7345
▁emissions	-7346
sc	-7347
▁Freiz	-7348
▁worked	-7349
Hotel	-7350
▁Agre	-7351
▁Supp	-7352
▁dipl	-7353
▁love	-7354
▁gesetz	-7355
QL	-7356
ruit	-7357
▁Amb	-7358
aries	-7359
▁Moreover	-7360
▁intended	-7361
auern	-7362
▁zudem	-7363
▁crimin	-7364
▁letzte	-7365
▁Einfluss	-7366
▁bemü	-7367
zusetzen	-7368
▁Its	-7369
sätze	-7370
▁Leute	-7371
▁Prozent	-7372
▁AC	-7373
▁sinn	-7374
hältnis	-7375
▁flexible	-7376
▁Schwer	-7377
iente	-7378
ildet	-7379
ighted	-7380
▁occup	-7381
lymp	-7382
konom	-7383
▁vertra	-7384
▁planning	-7385
8,	-7386
mand	-7387
aschine	-7388
krise	-7389
ita	-7390
▁running	-7391
▁annual	-7392
für	-7393
▁hot	-7394
▁feed	-7395
▁ehemal	-7396
▁negative	-7397
▁Produktions	-7398
▁cities	-7399
▁Bur	-7400
▁Falls	-7401
▁datab	-7402
▁confirm	-7403
mel	-7404
imat	-7405
immern	-7406
uses	-7407
▁Nachfol	-7408
▁Russian	-7409
reise	-7410
▁season	-7411
▁Annahme	-7412
▁Verfassung	-7413
ückt	-7414
▁award	-7415
zulegen	-7416
engungen	-7417
ev	-7418
grams	-7419
▁Georg	-7420
hood	-7421
tritt	-7422
▁Ihres	-7423
▁alone	-7424
ores	-7425
▁affe	-7426
▁God	-7427
▁traffic	-7428
▁übernehmen	-7429
▁Drit	-7430
ifying	-7431
▁fellow	-7432
IF	-7433
ga	-7434
enty	-7435
▁approved	-7436
▁dan	-7437
▁Ausschuß	-7438
gebiet	-7439
▁banks	-7440
▁setzt	-7441
▁terrace	-7442
▁yourself	-7443
ories	-7444
rogen	-7445
hotel	-7446
▁plans	-7447
▁Anerkennung	-7448
ielt	-7449
▁Bade	-7450
▁angeboten	-7451
▁collection	-7452
ensive	-7453
▁Ausgang	-7454
▁ability	-7455
▁Wo	-7456
ples	-7457
ión	-7458
▁Erk	-7459
▁decide	-7460
▁currency	-7461
▁—	-7462
▁laws	-7463
▁committed	-7464
▁deine	-7465
used	-7466
▁Eind	-7467
▁natür	-7468
ollar	-7469
▁Hause	-7470
▁medic	-7471
▁wrong	-7472
▁Wissenschaft	-7473
▁Arbeitsplätze	-7474
▁Mex	-7475
▁fire	-7476
▁Trotz	-7477
▁talking	-7478
▁box	-7479
▁jem	-7480
bourg	-7481
▁Gesamt	-7482
▁komfort	-7483
▁überzeugt	-7484
cluded	-7485
▁Waffen	-7486
▁begrüßen	-7487
wan	-7488
▁mill	-7489
zentrum	-7490
▁Kompromiss	-7491
itory	-7492
7,	-7493
acc	-7494
▁deg	-7495
▁Costa	-7496
▁comments	-7497
ils	-7498
hrte	-7499
▁menu	-7500
bringen	-7501
ystemen	-7502
angs	-7503
quate	-7504
▁benutzt	-7505
▁coordin	-7506
▁cell	-7507
▁People	-7508
▁Österreich	-7509
▁families	-7510
▁suitable	-7511
▁Cr	-7512
▁Slo	-7513
▁bir	-7514
esearch	-7515
▁entschieden	-7516
itzt	-7517
▁fas	-7518
▁länd	-7519
▁brand	-7520
▁privaten	-7521
ibly	-7522
iler	-7523
▁größere	-7524
▁provision	-7525
uly	-7526
”,	-7527
ray	-7528
▁placed	-7529
▁ensuring	-7530
▁Son	-7531
▁Glaub	-7532
▁falls	-7533
▁attempt	-7534
▁Zustimmung	-7535
kaufs	-7536
▁cele	-7537
▁Konzept	-7538
▁element	-7539
▁justice	-7540
▁zusätzliche	-7541
▁tal	-7542
alled	-7543
▁beide	-7544
▁regime	-7545
▁structural	-7546
inens	-7547
▁goal	-7548
▁Wahlen	-7549
bad	-7550
▁harm	-7551
▁Antrag	-7552
▁administrative	-7553
▁Ev	-7554
gers	-7555
▁Acht	-7556
▁danke	-7557
▁Organisationen	-7558
pliz	-7559
aming	-7560
▁touch	-7561
▁genannt	-7562
▁reforms	-7563
▁Verhalten	-7564
brit	-7565
▁anc	-7566
attle	-7567
▁kaum	-7568
▁Anspruch	-7569
▁po	-7570
▁says	-7571
▁Boden	-7572
▁bezahl	-7573
▁Tätigkeit	-7574
▁contribute	-7575
▁Tor	-7576
fälle	-7577
igran	-7578
▁played	-7579
▁remind	-7580
▁;	-7581
▁ethn	-7582
laufen	-7583
ördert	-7584
▁extend	-7585
▁dringend	-7586
▁whom	-7587
▁bestimmt	-7588
iano	-7589
▁Alp	-7590
struktur	-7591
▁irgend	-7592
artigen	-7593
idelines	-7594
▁increasingly	-7595
agraph	-7596
▁delivery	-7597
▁entgegen	-7598
▁Dub	-7599
▁Bon	-7600
▁spect	-7601
▁priorities	-7602
iat	-7603
▁endlich	-7604
▁Asia	-7605
ording	-7606
ses	-7607
esents	-7608
wirken	-7609
▁victims	-7610
▁erkennen	-7611
8.	-7612
zeichen	-7613
▁stabil	-7614
▁automatically	-7615
▁bege	-7616
AG	-7617
bü	-7618
▁AL	-7619
▁militär	-7620
▁gere	-7621
▁reag	-7622
▁Nations	-7623
▁conclusion	-7624
▁Anstrengungen	-7625
▁circumstances	-7626
▁umfang	-7627
zeigen	-7628
▁bilden	-7629
▁inn	-7630
inian	-7631
▁tit	-7632
reiber	-7633
▁crime	-7634
▁hol	-7635
▁Elekt	-7636
äher	-7637
▁Dre	-7638
▁angegeben	-7639
▁extensive	-7640
▁entspricht	-7641
▁Idee	-7642
▁elektron	-7643
▁represents	-7644
án	-7645
ida	-7646
▁Et	-7647
▁white	-7648
▁hochwert	-7649
▁restrict	-7650
▁euch	-7651
▁autom	-7652
▁Agenda	-7653
▁1990	-7654
▁entstehen	-7655
▁administration	-7656
gewöhn	-7657
▁Qualitäts	-7658
Le	-7659
my	-7660
▁vorsch	-7661
▁students	-7662
▁getting	-7663
ongs	-7664
▁cos	-7665
▁ersch	-7666
▁Durchführung	-7667
▁Roma	-7668
):	-7669
▁reduced	-7670
▁confidence	-7671
▁auszu	-7672
▁verme	-7673
▁gezeigt	-7674
time	-7675
glied	-7676
▁ce	-7677
2-	-7678
▁wert	-7679
haften	-7680
▁Autom	-7681
▁exactly	-7682
▁gesprochen	-7683
▁infrastructure	-7684
endet	-7685
▁feature	-7686
TV	-7687
ras	-7688
▁IP	-7689
omet	-7690
udem	-7691
▁manner	-7692
▁moderne	-7693
▁platform	-7694
ael	-7695
laus	-7696
ounge	-7697
▁rise	-7698
ündung	-7699
endence	-7700
▁Bemerk	-7701
▁4-	-7702
ampag	-7703
▁powerful	-7704
▁discussions	-7705
▁ed	-7706
daten	-7707
▁client	-7708
▁intell	-7709
▁precisely	-7710
▁mindestens	-7711
▁installation	-7712
▁phone	-7713
entwicklung	-7714
▁voraus	-7715
▁gesetzt	-7716
▁AN	-7717
▁Einsch	-7718
▁discrimin	-7719
90	-7720
▁belieb	-7721
▁Mitteilung	-7722
hy	-7723
oom	-7724
▁"...	-7725
▁kürz	-7726
▁Ident	-7727
▁quant	-7728
▁unterb	-7729
▁Archite	-7730
▁Fakt	-7731
▁Us	-7732
▁Grie	-7733
▁black	-7734
zeichnen	-7735
▁Überwach	-7736
▁participation	-7737
▁ship	-7738
▁Währung	-7739
▁Abschluss	-7740
▁encourage	-7741
▁introduced	-7742
fiz	-7743
▁occur	-7744
▁wahrscheinlich	-7745
▁sort	-7746
▁Garant	-7747
▁Schengen	-7748
▁beschlossen	-7749
öm	-7750
▁gegr	-7751
anlagen	-7752
▁affected	-7753
▁Innovation	-7754
▁notwendigen	-7755
▁Verpflichtungen	-7756
▁His	-7757
▁Wann	-7758
▁Besonder	-7759
called	-7760
▁nachdem	-7761
▁sicherzustellen	-7762
ING	-7763
▁nöt	-7764
▁oben	-7765
ham	-7766
▁scope	-7767
▁supports	-7768
▁demokratischen	-7769
▁Reserv	-7770
▁bewusst	-7771
▁Bi	-7772
▁Körper	-7773
▁unemployment	-7774
hle	-7775
▁Zudem	-7776
“.	-7777
letter	-7778
▁Indeed	-7779
▁Board	-7780
▁India	-7781
▁genutzt	-7782
▁speziell	-7783
iums	-7784
äden	-7785
▁Mio	-7786
system	-7787
▁rural	-7788
▁glauben	-7789
▁kontroll	-7790
▁vorgelegt	-7791
▁Cre	-7792
itzerland	-7793
▁Nah	-7794
ideos	-7795
://	-7796
▁sources	-7797
▁February	-7798
▁unbedingt	-7799
▁Any	-7800
▁Salz	-7801
▁chann	-7802
verläss	-7803
▁church	-7804
▁Regional	-7805
▁electronic	-7806
▁Kommunikation	-7807
CD	-7808
▁mm	-7809
▁wood	-7810
▁Ander	-7811
▁Olymp	-7812
▁erreich	-7813
▁mehreren	-7814
▁protected	-7815
▁Vereinbarung	-7816
▁Schlaf	-7817
gerungen	-7818
bu	-7819
orea	-7820
▁Bran	-7821
▁wesentlich	-7822
rum	-7823
▁Wik	-7824
▁Sand	-7825
▁entw	-7826
idents	-7827
▁globalen	-7828
▁eingerichtet	-7829
▁Ra	-7830
oted	-7831
wegung	-7832
▁herz	-7833
führer	-7834
▁Research	-7835
▁functions	-7836
IR	-7837
▁mittel	-7838
▁Vorteile	-7839
etten	-7840
▁Haft	-7841
▁akzeptieren	-7842
▁angesprochen	-7843
mon	-7844
▁Spr	-7845
▁Kauf	-7846
▁aimed	-7847
▁IM	-7848
▁zufrieden	-7849
▁Technologien	-7850
▁specifically	-7851
▁entsprechende	-7852
▁berücksichtigen	-7853
▁Lab	-7854
▁Sea	-7855
▁dead	-7856
▁Konflikt	-7857
▁eingehen	-7858
aktiv	-7859
▁tabled	-7860
▁zentral	-7861
▁spacious	-7862
▁Agreement	-7863
▁Ern	-7864
▁wants	-7865
▁Schaden	-7866
▁animals	-7867
▁geeignet	-7868
▁Kriterien	-7869
▁besonderen	-7870
▁Sing	-7871
▁purposes	-7872
▁Ausbildung	-7873
zech	-7874
▁anz	-7875
▁mid	-7876
▁vac	-7877
lying	-7878
spunkt	-7879
▁motion	-7880
▁Bew	-7881
▁Irak	-7882
▁Besucher	-7883
▁detailed	-7884
▁Stabilität	-7885
▁agriculture	-7886
▁Osten	-7887
▁repla	-7888
▁Zwischen	-7889
▁rechts	-7890
▁Sprachen	-7891
izenz	-7892
set	-7893
▁Holz	-7894
▁summit	-7895
ault	-7896
▁mix	-7897
▁prem	-7898
wenden	-7899
▁ausgew	-7900
unk	-7901
▁served	-7902
▁programs	-7903
▁otherwise	-7904
▁wonderful	-7905
agegen	-7906
▁erwähnt	-7907
▁Homepage	-7908
▁aktuelle	-7909
azz	-7910
uber	-7911
▁Koordin	-7912
mack	-7913
▁Tab	-7914
▁Each	-7915
▁police	-7916
▁verfügbar	-7917
elte	-7918
▁iP	-7919
ückw	-7920
▁ehr	-7921
▁Serb	-7922
▁hund	-7923
▁serve	-7924
▁verz	-7925
▁Licht	-7926
▁einzus	-7927
▁Inhalte	-7928
odies	-7929
schuld	-7930
▁Anpass	-7931
▁Zeichen	-7932
▁erzielt	-7933
▁enterprises	-7934
uit	-7935
▁screen	-7936
▁herunter	-7937
7.	-7938
▁Nahr	-7939
amente	-7940
▁temper	-7941
ologischen	-7942
het	-7943
▁metres	-7944
idential	-7945
ästinens	-7946
▁effectively	-7947
aria	-7948
benen	-7949
quality	-7950
▁expand	-7951
▁hinweisen	-7952
▁auth	-7953
unkten	-7954
schiede	-7955
▁thousands	-7956
▁Then	-7957
▁dienen	-7958
▁expected	-7959
▁Turk	-7960
▁mand	-7961
▁sold	-7962
inu	-7963
▁Abs	-7964
▁pleasant	-7965
ago	-7966
arus	-7967
▁Eff	-7968
▁Som	-7969
▁Monate	-7970
▁conver	-7971
▁Bestand	-7972
▁?	-7973
▁zuletzt	-7974
▁referred	-7975
do	-7976
▁larger	-7977
Al	-7978
ield	-7979
▁poll	-7980
afft	-7981
▁Paul	-7982
▁fert	-7983
Ch	-7984
ipt	-7985
zieht	-7986
▁Middle	-7987
▁Policy	-7988
▁Wellness	-7989
stieg	-7990
▁2020	-7991
▁scen	-7992
▁went	-7993
▁usually	-7994
▁discussed	-7995
▁bestehenden	-7996
▁Tele	-7997
▁Immobil	-7998
rans	-7999
▁Milit	-8000
▁benutzen	-8001
▁provider	-8002
▁Frankfurt	-8003
▁ec	-8004
▁Mensch	-8005
▁Motor	-8006
uts	-8007
▁forget	-8008
▁facilit	-8009
fu	-8010
amber	-8011
▁competitive	-8012
ala	-8013
▁schwierig	-8014
▁möglicherweise	-8015
▁Tar	-8016
▁presence	-8017
▁Schließlich	-8018
▁Dol	-8019
▁luxur	-8020
fahrens	-8021
▁likely	-8022
**	-8023
▁Most	-8024
▁critical	-8025
IG	-8026
äuser	-8027
▁Prote	-8028
▁nationale	-8029
onym	-8030
▁dedic	-8031
▁sitting	-8032
jected	-8033
▁Industr	-8034
▁picture	-8035
ingu	-8036
▁Ann	-8037
▁mic	-8038
jo	-8039
▁Prag	-8040
achtet	-8041
▁Assoc	-8042
▁Beitritts	-8043
▁..	-8044
▁Liber	-8045
▁becoming	-8046
▁geändert	-8047
▁Hintergrund	-8048
▁jene	-8049
▁medical	-8050
▁camera	-8051
▁Fischerei	-8052
uropa	-8053
▁reception	-8054
uisine	-8055
▁selected	-8056
DP	-8057
▁Stil	-8058
▁developments	-8059
sm	-8060
▁Card	-8061
▁Greece	-8062
▁managed	-8063
▁finanziellen	-8064
▁institutional	-8065
▁multil	-8066
▁Aufnahme	-8067
▁marketing	-8068
britann	-8069
ibilität	-8070
▁Richtlinien	-8071
avi	-8072
▁beds	-8073
▁corresp	-8074
▁Schlüssel	-8075
▁buildings	-8076
ensions	-8077
law	-8078
▁Öl	-8079
▁Other	-8080
▁risks	-8081
clude	-8082
▁Click	-8083
▁Nutzen	-8084
▁Arab	-8085
▁einzu	-8086
▁plus	-8087
▁festgelegt	-8088
▁entry	-8089
▁freien	-8090
▁Av	-8091
▁weap	-8092
▁Luxem	-8093
▁Verfass	-8094
▁Why	-8095
▁unc	-8096
▁Meter	-8097
enhagen	-8098
▁Ausgaben	-8099
▁zug	-8100
▁watch	-8101
▁Enterprise	-8102
▁Switzerland	-8103
PT	-8104
categories	-8105
▁assessment	-8106
▁introduction	-8107
ureau	-8108
▁hoffen	-8109
▁Vorbereit	-8110
▁umgesetzt	-8111
▁Unterkategorien	-8112
ücke	-8113
cause	-8114
▁convin	-8115
▁followed	-8116
▁budgetary	-8117
werten	-8118
▁Great	-8119
▁domin	-8120
▁ade	-8121
▁Prov	-8122
▁acqu	-8123
wasser	-8124
▁competen	-8125
▁disapp	-8126
either	-8127
▁trust	-8128
atively	-8129
▁jederzeit	-8130
vements	-8131
▁Fot	-8132
▁Kenntnis	-8133
▁radio	-8134
▁compens	-8135
Sh	-8136
▁Frem	-8137
▁Karte	-8138
▁Partei	-8139
▁actual	-8140
▁Forderung	-8141
aw	-8142
▁Geh	-8143
kap	-8144
▁45	-8145
cers	-8146
▁Code	-8147
▁bott	-8148
▁debt	-8149
ailing	-8150
▁Griechen	-8151
▁beziehen	-8152
▁votes	-8153
/2	-8154
gets	-8155
nach	-8156
▁Czech	-8157
▁Komfort	-8158
Sp	-8159
üste	-8160
▁Klein	-8161
▁gleiche	-8162
asts	-8163
▁süd	-8164
▁unters	-8165
▁(3	-8166
▁entit	-8167
▁lesen	-8168
▁Economic	-8169
mas	-8170
ania	-8171
▁Status	-8172
▁fahren	-8173
▁Reformen	-8174
▁mil	-8175
▁Suche	-8176
▁tempor	-8177
▁Einrichtungen	-8178
▁Exp	-8179
▁opened	-8180
▁anderes	-8181
▁earlier	-8182
▁entirely	-8183
▁defend	-8184
▁freuen	-8185
▁listed	-8186
▁prüfen	-8187
▁comment	-8188
▁Haushalt	-8189
rel	-8190
umin	-8191
▁bequem	-8192
▁stated	-8193
leisch	-8194
▁inside	-8195
▁Vereinten	-8196
▁ISO	-8197
▁Stimme	-8198
▁closely	-8199
ungsantrag	-8200
▁Produkten	-8201
EW	-8202
ads	-8203
▁6.	-8204
▁centr	-8205
istence	-8206
chnologie	-8207
▁wünschen	-8208
▁stattfinden	-8209
werke	-8210
▁save	-8211
▁paper	-8212
▁networks	-8213
leitung	-8214
levision	-8215
▁Apartments	-8216
▁guidelines	-8217
aves	-8218
▁Zweck	-8219
▁spread	-8220
aste	-8221
▁Straße	-8222
rahmen	-8223
▁Schiff	-8224
▁winter	-8225
▁Haltung	-8226
▁improving	-8227
▁Cast	-8228
▁Wirk	-8229
▁supporting	-8230
TA	-8231
ADS	-8232
▁Fischere	-8233
▁Zunächst	-8234
▁According	-8235
band	-8236
icks	-8237
jekten	-8238
club	-8239
union	-8240
▁duty	-8241
▁frag	-8242
▁Installation	-8243
▁considerable	-8244
lad	-8245
reiten	-8246
▁speech	-8247
gencies	-8248
mod	-8249
▁Funktionen	-8250
▁competitiveness	-8251
roh	-8252
▁remark	-8253
▁machines	-8254
▁kostenlos	-8255
▁sho	-8256
verse	-8257
▁abst	-8258
zieren	-8259
▁explo	-8260
▁multip	-8261
▁erfüllt	-8262
▁telephone	-8263
sper	-8264
scher	-8265
ometer	-8266
▁compl	-8267
▁degree	-8268
▁tourism	-8269
ente	-8270
▁entweder	-8271
▁Tun	-8272
▁Sinn	-8273
▁Wege	-8274
▁Umst	-8275
▁Rooms	-8276
▁graph	-8277
ulierung	-8278
▁gave	-8279
▁format	-8280
▁Dienste	-8281
▁erzielen	-8282
posed	-8283
ktiven	-8284
punkte	-8285
▁ergän	-8286
▁gemüt	-8287
▁accomp	-8288
▁verring	-8289
▁purchase	-8290
▁verbessert	-8291
▁Grenz	-8292
ikanische	-8293
▁Vielfalt	-8294
▁Heil	-8295
▁Power	-8296
▁Dateien	-8297
▁impress	-8298
▁immigration	-8299
igem	-8300
▁Break	-8301
▁Moment	-8302
▁operations	-8303
▁linked	-8304
▁betonen	-8305
▁Netzwerk	-8306
▁Großbritann	-8307
▁Arten	-8308
▁typical	-8309
konferenz	-8310
▁gewünsch	-8311
▁Grundsatz	-8312
▁fisheries	-8313
atik	-8314
▁map	-8315
▁Sektor	-8316
▁offens	-8317
▁territor	-8318
▁ergreifen	-8319
▁öffentlich	-8320
denken	-8321
▁interpret	-8322
▁ged	-8323
▁uses	-8324
▁erhöhen	-8325
iques	-8326
▁alloc	-8327
▁destro	-8328
▁Infrastruktur	-8329
ua	-8330
▁Ja	-8331
▁lösen	-8332
ulieren	-8333
▁welcher	-8334
ishing	-8335
▁electric	-8336
▁effizient	-8337
▁exclusive	-8338
▁Found	-8339
▁brief	-8340
▁angezeigt	-8341
erstellen	-8342
▁darunter	-8343
ennis	-8344
▁Kind	-8345
▁empfehl	-8346
▁substantial	-8347
▁Menge	-8348
▁jeweils	-8349
▁properly	-8350
▁darstellen	-8351
▁Ky	-8352
▁psych	-8353
▁Völker	-8354
gment	-8355
▁coffe	-8356
prüfung	-8357
▁fallen	-8358
▁sicherlich	-8359
etze	-8360
uard	-8361
gewicht	-8362
▁Sehens	-8363
▁Kindern	-8364
wohner	-8365
▁color	-8366
▁klare	-8367
▁covered	-8368
▁numbers	-8369
▁übernachten	-8370
▁abzu	-8371
▁ausger	-8372
▁Haup	-8373
▁ries	-8374
▁wären	-8375
-20	-8376
wirk	-8377
▁prä	-8378
▁facing	-8379
▁technische	-8380
▁Ap	-8381
chmal	-8382
crete	-8383
▁delay	-8384
▁moral	-8385
▁Wander	-8386
▁compar	-8387
▁Standards	-8388
▁photograph	-8389
ora	-8390
▁Pack	-8391
kunfts	-8392
gemeine	-8393
▁Kol	-8394
▁sagt	-8395
▁Never	-8396
▁Leistungen	-8397
bruch	-8398
▁Street	-8399
▁becomes	-8400
▁understanding	-8401
▁Februar	-8402
▁Abschließend	-8403
▁Techn	-8404
Aus	-8405
▁Vien	-8406
▁Guest	-8407
schul	-8408
▁items	-8409
▁vermeiden	-8410
▁Maschinen	-8411
▁coordination	-8412
ossible	-8413
imb	-8414
itze	-8415
▁é	-8416
▁Over	-8417
▁incor	-8418
▁cuisine	-8419
maß	-8420
▁htt	-8421
▁hosp	-8422
ussels	-8423
▁400	-8424
wagen	-8425
▁grenz	-8426
▁Because	-8427
▁Arbeiten	-8428
▁funktioniert	-8429
-2	-8430
can	-8431
▁fragen	-8432
▁average	-8433
▁experts	-8434
▁lokalen	-8435
▁Charakter	-8436
uting	-8437
▁Health	-8438
▁detail	-8439
freiheit	-8440
▁presidency	-8441
RA	-8442
ova	-8443
▁Mir	-8444
▁plants	-8445
▁components	-8446
▁Verwaltungs	-8447
inc	-8448
präsident	-8449
▁permanent	-8450
▁teilweise	-8451
tete	-8452
▁Alex	-8453
▁Datei	-8454
▁peaceful	-8455
ünden	-8456
ameter	-8457
▁relate	-8458
▁braucht	-8459
16	-8460
istrib	-8461
plätze	-8462
▁hands	-8463
▁verur	-8464
schlossen	-8465
▁kommenden	-8466
km	-8467
gebaut	-8468
▁difficulties	-8469
dis	-8470
▁29	-8471
▁animal	-8472
▁fit	-8473
angel	-8474
▁thinking	-8475
▁informieren	-8476
▁calc	-8477
▁Banken	-8478
▁gelangen	-8479
▁ging	-8480
möglich	-8481
▁Absatz	-8482
▁refuge	-8483
▁resort	-8484
▁willing	-8485
EA	-8486
▁Teile	-8487
▁constit	-8488
▁playing	-8489
▁Lib	-8490
▁vehicles	-8491
olden	-8492
▁strict	-8493
▁Belarus	-8494
▁Abgeordnete	-8495
▁Instrumente	-8496
gal	-8497
like	-8498
▁Schn	-8499
▁Station	-8500
▁ständig	-8501
▁Zeiten	-8502
▁Telefon	-8503
▁applies	-8504
▁founded	-8505
▁recognis	-8506
▁authority	-8507
▁Bereit	-8508
▁stärken	-8509
▁opposition	-8510
▁SP	-8511
▁dramat	-8512
▁Pakistan	-8513
▁Sach	-8514
▁speaking	-8515
▁convenient	-8516
▁Eisen	-8517
vey	-8518
ütze	-8519
▁tack	-8520
inding	-8521
prechen	-8522
▁Kirche	-8523
▁Übergang	-8524
▁193	-8525
itter	-8526
▁EADS	-8527
▁volle	-8528
▁ausdrücklich	-8529
try	-8530
▁3-	-8531
▁Klimawand	-8532
▁GN	-8533
▁Rein	-8534
▁stärk	-8535
▁Office	-8536
▁komplex	-8537
▁Berichte	-8538
▁durchaus	-8539
ading	-8540
preis	-8541
tte	-8542
stelle	-8543
▁Mount	-8544
▁Warum	-8545
▁elimin	-8546
▁meetings	-8547
hnung	-8548
▁absolut	-8549
▁percent	-8550
▁Rechnung	-8551
▁konkrete	-8552
▁3,	-8553
▁scr	-8554
▁Bush	-8555
▁Vielen	-8556
▁dealing	-8557
▁7.	-8558
greif	-8559
▁sand	-8560
▁Brussels	-8561
räft	-8562
▁Top	-8563
▁Santa	-8564
▁dagegen	-8565
▁flexibility	-8566
▁Tool	-8567
▁Fonds	-8568
▁shower	-8569
▁Unfortunately	-8570
▁Poland	-8571
▁stimme	-8572
▁Initiativen	-8573
rok	-8574
ura	-8575
▁shops	-8576
yer	-8577
ißen	-8578
▁Anteil	-8579
▁Risiko	-8580
▁adjust	-8581
isierten	-8582
▁komplett	-8583
▁Herstellung	-8584
rich	-8585
▁mobil	-8586
▁Kritik	-8587
▁Act	-8588
▁resist	-8589
▁geograph	-8590
▁besuchen	-8591
▁erstellt	-8592
MU	-8593
overy	-8594
▁Bern	-8595
▁wollte	-8596
▁gewährleistet	-8597
füll	-8598
▁gekommen	-8599
waren	-8600
▁estate	-8601
▁generally	-8602
▁Environment	-8603
üg	-8604
umm	-8605
▁--	-8606
▁ober	-8607
▁sole	-8608
▁told	-8609
schech	-8610
▁Leider	-8611
▁orient	-8612
▁Einigung	-8613
äumen	-8614
▁alte	-8615
▁door	-8616
▁http	-8617
▁Gipfel	-8618
▁organiz	-8619
IB	-8620
ishes	-8621
▁pros	-8622
▁schem	-8623
▁untern	-8624
isms	-8625
▁trägt	-8626
▁failure	-8627
▁Nachfolgend	-8628
▁Wass	-8629
▁gern	-8630
▁russ	-8631
▁conduct	-8632
▁Webseite	-8633
tempor	-8634
▁claim	-8635
▁chines	-8636
▁Systeme	-8637
▁Verständ	-8638
utin	-8639
▁sle	-8640
▁trave	-8641
▁consideration	-8642
▁suc	-8643
▁nieder	-8644
umn	-8645
▁Bay	-8646
▁database	-8647
▁establishment	-8648
▁Pfl	-8649
accept	-8650
▁combat	-8651
ünen	-8652
▁PHP	-8653
▁Name	-8654
▁Kenn	-8655
▁dennoch	-8656
▁Worte	-8657
tenance	-8658
▁criminal	-8659
▁superv	-8660
▁organisation	-8661
▁Veränderungen	-8662
Er	-8663
▁Once	-8664
▁Phil	-8665
▁anyone	-8666
mär	-8667
▁promotion	-8668
▁freue	-8669
▁Origin	-8670
▁signed	-8671
▁handeln	-8672
▁Rec	-8673
▁fle	-8674
▁domestic	-8675
▁Sow	-8676
cknow	-8677
▁Vill	-8678
▁Kingdom	-8679
▁advanced	-8680
▁hour	-8681
bericht	-8682
peratur	-8683
▁district	-8684
▁Jahrhunderts	-8685
sb	-8686
▁Band	-8687
▁Kurz	-8688
atoren	-8689
▁Begriff	-8690
▁klicken	-8691
ranken	-8692
▁Black	-8693
▁zuvor	-8694
▁Madrid	-8695
▁benötigt	-8696
▁NI	-8697
▁zul	-8698
haber	-8699
▁Zeitraum	-8700
▁adoption	-8701
year	-8702
hrase	-8703
itors	-8704
▁Sekt	-8705
▁Casino	-8706
▁Wien	-8707
lösung	-8708
▁voice	-8709
▁Klicken	-8710
▁wenigen	-8711
▁promoting	-8712
▁Saf	-8713
rollen	-8714
▁dispos	-8715
▁Sehenswürd	-8716
sta	-8717
rägen	-8718
▁easier	-8719
▁Unabhäng	-8720
schung	-8721
SL	-8722
lägen	-8723
▁sorg	-8724
18	-8725
▁Bos	-8726
▁acknow	-8727
▁happened	-8728
▁politics	-8729
▁Fore	-8730
portion	-8731
▁coffee	-8732
▁signal	-8733
aken	-8734
▁clar	-8735
▁fixed	-8736
▁liebe	-8737
ée	-8738
oyal	-8739
arter	-8740
inary	-8741
▁Under	-8742
▁celebr	-8743
▁Engagement	-8744
DA	-8745
▁19.	-8746
▁aims	-8747
▁bear	-8748
▁Trade	-8749
European	-8750
▁defined	-8751
▁paragraph	-8752
uba	-8753
▁Non	-8754
▁lernen	-8755
▁Mitgliedstaat	-8756
▁au	-8757
▁jur	-8758
▁Plen	-8759
▁bodies	-8760
▁möglichst	-8761
pper	-8762
▁Angaben	-8763
▁succeed	-8764
bew	-8765
lern	-8766
known	-8767
▁Ideen	-8768
▁Jetzt	-8769
▁length	-8770
ey	-8771
▁Hafen	-8772
▁financing	-8773
▁gefordert	-8774
▁Ratsvorsitz	-8775
▁Kil	-8776
▁Mechan	-8777
▁instru	-8778
▁erfolgen	-8779
▁Fen	-8780
iche	-8781
opol	-8782
▁lif	-8783
▁früh	-8784
▁hinzuf	-8785
▁hop	-8786
▁hält	-8787
▁imag	-8788
▁klass	-8789
▁legen	-8790
▁leader	-8791
▁middle	-8792
ee	-8793
▁tut	-8794
free	-8795
▁Kal	-8796
▁unaccept	-8797
▁verwende	-8798
17	-8799
▁Mel	-8800
wogen	-8801
▁beru	-8802
führten	-8803
▁Christian	-8804
▁attractive	-8805
ibel	-8806
▁Freund	-8807
▁appears	-8808
▁arrival	-8809
▁experienced	-8810
läuf	-8811
ashion	-8812
▁contra	-8813
▁Stärkung	-8814
ido	-8815
Str	-8816
embly	-8817
▁Versuch	-8818
▁Allgemein	-8819
▁Königreich	-8820
▁dro	-8821
fachen	-8822
▁Komple	-8823
▁einiger	-8824
▁erleben	-8825
▁eingesch	-8826
▁informed	-8827
▁erstellen	-8828
zz	-8829
▁Out	-8830
etter	-8831
▁endgült	-8832
▁feststellen	-8833
oman	-8834
▁safeg	-8835
▁Brüssel	-8836
▁Breakfast	-8837
▁humanitarian	-8838
icians	-8839
▁Dennoch	-8840
▁unternehmen	-8841
▁veröffentlicht	-8842
▁houses	-8843
▁Gebieten	-8844
da	-8845
hörde	-8846
▁Modern	-8847
▁umfasst	-8848
▁practices	-8849
▁verfolgen	-8850
14	-8851
▁Irish	-8852
▁gradu	-8853
▁sauber	-8854
stimmung	-8855
▁erklären	-8856
▁Herausforderung	-8857
▁ST	-8858
making	-8859
▁Lehr	-8860
ategory	-8861
▁Sonnen	-8862
leistungs	-8863
▁positions	-8864
SC	-8865
▁cards	-8866
▁spielt	-8867
▁amerikanischen	-8868
meld	-8869
öder	-8870
▁erf	-8871
▁multi	-8872
▁names	-8873
▁gering	-8874
▁income	-8875
esterday	-8876
▁article	-8877
kle	-8878
ibet	-8879
llos	-8880
▁1996	-8881
▁Harmon	-8882
▁stable	-8883
▁Saint	-8884
▁booking	-8885
sprogramm	-8886
▁verlassen	-8887
▁impossible	-8888
▁structures	-8889
▁•	-8890
▁IC	-8891
▁ausges	-8892
arischen	-8893
body	-8894
▁vere	-8895
▁myself	-8896
jährigen	-8897
▁reducing	-8898
▁described	-8899
▁rech	-8900
▁models	-8901
▁Analyse	-8902
▁Technik	-8903
▁Großbritannien	-8904
qual	-8905
▁sty	-8906
worten	-8907
▁Atlant	-8908
qualität	-8909
verkehrs	-8910
▁Leistung	-8911
▁Nahrungs	-8912
▁charged	-8913
▁Mö	-8914
person	-8915
▁Super	-8916
▁accur	-8917
▁Aufbau	-8918
▁Hauses	-8919
▁konzentrieren	-8920
▁parliamentary	-8921
▁Wand	-8922
▁wirks	-8923
▁),	-8924
haben	-8925
▁Rand	-8926
▁Formen	-8927
▁Turkish	-8928
▁associated	-8929
▁difference	-8930
ilder	-8931
▁concrete	-8932
Es	-8933
]],	-8934
ista	-8935
▁Ruhe	-8936
▁Regelung	-8937
▁Einhaltung	-8938
▁Forderungen	-8939
▁Stellungnahme	-8940
▁Ul	-8941
iffer	-8942
▁unan	-8943
gestimmt	-8944
▁schönen	-8945
ny	-8946
▁Umfang	-8947
▁nennen	-8948
▁ancient	-8949
▁himself	-8950
▁nächste	-8951
▁Mittelmeer	-8952
aby	-8953
allel	-8954
▁beaches	-8955
▁propose	-8956
condition	-8957
▁ow	-8958
▁20.	-8959
ibrary	-8960
▁hören	-8961
▁manage	-8962
▁Prioritäten	-8963
arta	-8964
iegel	-8965
▁compla	-8966
▁Immobilien	-8967
▁finanzielle	-8968
▁Konz	-8969
illing	-8970
▁calling	-8971
.”	-8972
▁Hamburg	-8973
▁Zweifel	-8974
äten	-8975
lisch	-8976
▁zerst	-8977
zeption	-8978
zwischen	-8979
4-0	-8980
sized	-8981
▁producers	-8982
ador	-8983
▁translation	-8984
▁00	-8985
▁AK	-8986
iertes	-8987
▁Aspekt	-8988
▁übertragen	-8989
▁Association	-8990
▁Rum	-8991
älter	-8992
▁mist	-8993
▁cooper	-8994
▁courses	-8995
▁released	-8996
iking	-8997
hindert	-8998
▁Zugrif	-8999
pendence	-9000
▁Achtung	-9001
▁pet	-9002
▁condem	-9003
▁approxim	-9004
▁territory	-9005
▁hingewiesen	-9006
▁haup	-9007
leihen	-9008
▁Justice	-9009
▁regionalen	-9010
▁erforderlichen	-9011
▁Forum	-9012
▁Titel	-9013
▁taste	-9014
▁arbeitet	-9015
aker	-9016
ibli	-9017
karten	-9018
▁Texte	-9019
▁studies	-9020
▁entertain	-9021
▁seriously	-9022
▁television	-9023
▁überprüfen	-9024
▁profitieren	-9025
▁Note	-9026
▁Geist	-9027
▁ahead	-9028
▁indire	-9029
▁miteinander	-9030
▁unacceptable	-9031
▁evidence	-9032
▁guarantees	-9033
▁Anwendungen	-9034
deck	-9035
▁instance	-9036
sicherheit	-9037
▁background	-9038
ando	-9039
▁unabhängig	-9040
▁diskutieren	-9041
▁Vienna	-9042
▁shared	-9043
▁welcom	-9044
▁relaxing	-9045
▁immediate	-9046
sport	-9047
▁zahlen	-9048
▁Firstly	-9049
▁positiv	-9050
▁Patienten	-9051
▁richtigen	-9052
▁reasonable	-9053
organisation	-9054
▁implementing	-9055
gypt	-9056
üter	-9057
räume	-9058
▁figures	-9059
▁recognition	-9060
LE	-9061
regel	-9062
ränken	-9063
▁zentrale	-9064
▁abgeschlossen	-9065
Ab	-9066
▁alt	-9067
▁Strom	-9068
▁truly	-9069
▁greatest	-9070
▁Hersteller	-9071
ointed	-9072
yright	-9073
▁Messe	-9074
▁neighbour	-9075
▁exhibition	-9076
ae	-9077
Script	-9078
wissen	-9079
%.	-9080
▁spent	-9081
▁Flücht	-9082
▁gegründet	-9083
▁Wald	-9084
▁cars	-9085
▁Seine	-9086
▁fulfil	-9087
▁connected	-9088
▁erscheint	-9089
▁membership	-9090
▁perspective	-9091
pal	-9092
▁unto	-9093
▁danach	-9094
gas	-9095
iscal	-9096
reifen	-9097
▁eingeführt	-9098
▁MP	-9099
preise	-9100
▁betrachtet	-9101
▁differences	-9102
▁cred	-9103
▁England	-9104
▁Festival	-9105
▁monetary	-9106
▁einsetzen	-9107
ruf	-9108
▁Stein	-9109
▁Verletz	-9110
▁Gemeinsamen	-9111
▁agencies	-9112
▁gewinnen	-9113
▁announced	-9114
ikal	-9115
weist	-9116
▁unge	-9117
▁Sorge	-9118
▁stell	-9119
zeugung	-9120
▁Polize	-9121
▁possibilities	-9122
zig	-9123
▁Schön	-9124
▁natur	-9125
▁oppos	-9126
▁Katastrop	-9127
▁gegenseit	-9128
▁Asyl	-9129
▁defence	-9130
▁10.	-9131
▁Effe	-9132
▁forest	-9133
▁erleich	-9134
▁Terrasse	-9135
▁effektiv	-9136
upp	-9137
door	-9138
▁Europeans	-9139
rem	-9140
ohlen	-9141
leiten	-9142
▁adapt	-9143
▁Lesung	-9144
▁beauty	-9145
▁Private	-9146
ärm	-9147
▁Gewähr	-9148
▁transition	-9149
▁continues	-9150
▁economies	-9151
licherweise	-9152
▁statements	-9153
▁improvement	-9154
:0	-9155
▁closer	-9156
▁Vielzahl	-9157
▁collabor	-9158
▁combined	-9159
▁politischer	-9160
ugos	-9161
▁denken	-9162
▁begrenz	-9163
▁consumption	-9164
);	-9165
▁sn	-9166
liefer	-9167
▁union	-9168
▁Kommissions	-9169
▁Gleichzeitig	-9170
▁una	-9171
▁Polen	-9172
▁expend	-9173
▁genuine	-9174
▁Währungs	-9175
▁Bedürfnisse	-9176
ENT	-9177
▁Due	-9178
▁Dorf	-9179
▁excess	-9180
▁totally	-9181
▁entitled	-9182
▁verloren	-9183
▁born	-9184
▁Check	-9185
▁Colle	-9186
▁Wicht	-9187
atellite	-9188
▁Zuständ	-9189
▁occasion	-9190
nam	-9191
▁Main	-9192
▁sale	-9193
▁enables	-9194
▁architecture	-9195
26	-9196
comm	-9197
▁21.	-9198
▁Mun	-9199
iendly	-9200
▁Democrats	-9201
▁geleistet	-9202
▁Lam	-9203
erman	-9204
sequent	-9205
▁meters	-9206
▁persönlich	-9207
▁Gerichtshof	-9208
▁Prime	-9209
raucher	-9210
▁desire	-9211
▁täglich	-9212
▁unz	-9213
▁shop	-9214
▁vert	-9215
▁Versch	-9216
▁Tourismus	-9217
pa	-9218
▁Paket	-9219
▁combination	-9220
▁Sehr	-9221
▁rent	-9222
▁Michael	-9223
▁advance	-9224
▁dangerous	-9225
▁urban	-9226
▁nearby	-9227
▁Diskrimin	-9228
▁glob	-9229
▁Fel	-9230
▁Hall	-9231
▁einst	-9232
▁Fernse	-9233
▁science	-9234
▁nom	-9235
haltet	-9236
▁skills	-9237
▁bezeichnet	-9238
ía	-9239
▁except	-9240
▁connect	-9241
▁verfolgt	-9242
utch	-9243
version	-9244
▁Altstadt	-9245
▁religious	-9246
irus	-9247
uble	-9248
▁win	-9249
▁river	-9250
olo	-9251
▁Typ	-9252
grade	-9253
▁kulturellen	-9254
▁discrimination	-9255
ih	-9256
künd	-9257
▁kons	-9258
▁command	-9259
▁relativ	-9260
▁withdra	-9261
▁Angesichts	-9262
▁ausreichend	-9263
krieg	-9264
▁Live	-9265
▁norm	-9266
▁trag	-9267
▁glass	-9268
▁railway	-9269
▁trading	-9270
▁allowing	-9271
▁holidays	-9272
▁sämtliche	-9273
kor	-9274
bring	-9275
▁Foto	-9276
▁Beitritt	-9277
▁garantiert	-9278
▁advertising	-9279
itage	-9280
▁tasks	-9281
▁Meeres	-9282
▁availability	-9283
box	-9284
ema	-9285
▁THE	-9286
▁spl	-9287
aration	-9288
▁Irland	-9289
▁haupts	-9290
▁romant	-9291
▁weiterer	-9292
imit	-9293
▁Bis	-9294
Innen	-9295
▁conv	-9296
ilst	-9297
mögen	-9298
▁Heimat	-9299
▁behaup	-9300
UT	-9301
istik	-9302
active	-9303
▁Nether	-9304
kan	-9305
linge	-9306
atever	-9307
▁bemer	-9308
▁sides	-9309
▁spezielle	-9310
iro	-9311
cont	-9312
oring	-9313
▁gram	-9314
orient	-9315
bindung	-9316
▁beginnt	-9317
▁mountains	-9318
▁maintenance	-9319
▁Po	-9320
reten	-9321
▁Finn	-9322
mittag	-9323
-3	-9324
▁unf	-9325
ensus	-9326
stands	-9327
temporary	-9328
▁Kompeten	-9329
gu	-9330
führungen	-9331
▁8.	-9332
steht	-9333
▁Ausfl	-9334
▁Beach	-9335
▁Verst	-9336
▁Anlagen	-9337
posit	-9338
▁Wall	-9339
▁wishes	-9340
▁carefully	-9341
▁aufmerksam	-9342
öse	-9343
öss	-9344
▁Poker	-9345
ireless	-9346
▁unfortunately	-9347
▁kept	-9348
auftrag	-9349
▁Regelungen	-9350
▁Überwachung	-9351
äck	-9352
▁Media	-9353
▁Meiner	-9354
▁generation	-9355
Ne	-9356
▁Lo	-9357
▁Vo	-9358
stattung	-9359
▁Entwurf	-9360
▁introduce	-9361
▁französischen	-9362
icking	-9363
▁Foundation	-9364
▁Verteidigung	-9365
▁24-	-9366
▁fruit	-9367
▁window	-9368
ologische	-9369
▁Aussicht	-9370
▁insurance	-9371
▁Regulation	-9372
LAN	-9373
▁isol	-9374
▁Barroso	-9375
▁completed	-9376
Kon	-9377
rance	-9378
▁Rome	-9379
▁refle	-9380
▁einver	-9381
▁owners	-9382
▁überall	-9383
▁Problemen	-9384
▁garantieren	-9385
asil	-9386
▁liter	-9387
▁strongly	-9388
▁Mü	-9389
▁Anw	-9390
tzeit	-9391
▁tätig	-9392
▁größeren	-9393
▁delic	-9394
▁Digital	-9395
inder	-9396
assung	-9397
sektor	-9398
▁höchste	-9399
▁attractions	-9400
omas	-9401
▁match	-9402
▁device	-9403
▁großes	-9404
▁tief	-9405
istisch	-9406
▁surface	-9407
▁Bewertung	-9408
▁geschehen	-9409
▁Entwicklungen	-9410
▁PDF	-9411
▁Afrika	-9412
▁mission	-9413
▁Wi	-9414
▁Syn	-9415
▁raise	-9416
▁veget	-9417
▁compared	-9418
windigkeit	-9419
▁Nevertheless	-9420
▁ru	-9421
▁Yet	-9422
▁Muse	-9423
bieter	-9424
▁warten	-9425
government	-9426
▁Verpflichtung	-9427
▁Mat	-9428
▁dauer	-9429
partner	-9430
▁button	-9431
▁failed	-9432
▁gegenwärtig	-9433
▁devices	-9434
www	-9435
enkt	-9436
onial	-9437
allery	-9438
▁meant	-9439
▁learning	-9440
▁packages	-9441
▁wunderschö	-9442
▁kü	-9443
▁stim	-9444
▁2009.	-9445
▁Martin	-9446
▁memory	-9447
▁reliable	-9448
▁establishing	-9449
▁vul	-9450
▁enth	-9451
▁installed	-9452
▁Beteiligung	-9453
▁üb	-9454
rüst	-9455
▁Maße	-9456
▁Where	-9457
▁spending	-9458
ürk	-9459
chem	-9460
▁square	-9461
▁session	-9462
andidaten	-9463
▁controls	-9464
▁folgende	-9465
▁registered	-9466
▁Globalisierung	-9467
▁0.	-9468
ries	-9469
▁saw	-9470
athed	-9471
itious	-9472
aktionen	-9473
holung	-9474
▁Gründe	-9475
▁exercise	-9476
EO	-9477
chnet	-9478
▁Hard	-9479
okraten	-9480
▁unless	-9481
▁grenzüber	-9482
▁Worten	-9483
▁zusätzlich	-9484
irl	-9485
▁diss	-9486
▁konstru	-9487
▁Europäer	-9488
▁Partnerschaft	-9489
▁Schif	-9490
▁claims	-9491
▁Führung	-9492
▁geschützt	-9493
▁unterstütze	-9494
▁gegenwärtigen	-9495
attform	-9496
gegeben	-9497
▁vernünft	-9498
▁entstanden	-9499
45	-9500
Ser	-9501
▁dir	-9502
▁core	-9503
▁golf	-9504
ipping	-9505
uchten	-9506
▁urgent	-9507
▁collect	-9508
▁ök	-9509
▁Lake	-9510
▁vollkommen	-9511
olge	-9512
rate	-9513
▁Day	-9514
▁Bill	-9515
▁earn	-9516
reisen	-9517
▁Defin	-9518
▁seven	-9519
▁keinerlei	-9520
era	-9521
onia	-9522
▁Fotos	-9523
▁continued	-9524
▁pure	-9525
▁unable	-9526
▁Priorität	-9527
▁Data	-9528
▁African	-9529
▁Element	-9530
▁Netherlands	-9531
ris	-9532
▁ID	-9533
iode	-9534
▁gestalten	-9535
▁participate	-9536
road	-9537
▁Work	-9538
versorgung	-9539
▁Constitution	-9540
▁vorliegenden	-9541
ooth	-9542
▁Pil	-9543
ancial	-9544
▁buffet	-9545
▁formal	-9546
▁commitments	-9547
afr	-9548
ram	-9549
ario	-9550
▁Rechnungs	-9551
▁geeig	-9552
▁scale	-9553
▁Größe	-9554
▁besitzt	-9555
▁Beschäftigungs	-9556
▁75	-9557
bere	-9558
▁müs	-9559
ammer	-9560
istor	-9561
▁Mond	-9562
▁beige	-9563
▁enormous	-9564
▁individuals	-9565
zep	-9566
▁Custom	-9567
▁prison	-9568
▁Teilnehmer	-9569
▁leb	-9570
System	-9571
▁story	-9572
igrants	-9573
viel	-9574
with	-9575
▁Künstler	-9576
▁Rh	-9577
▁Erhö	-9578
▁Links	-9579
▁Fortschritt	-9580
▁Very	-9581
▁dedicated	-9582
olz	-9583
▁kos	-9584
▁gutes	-9585
▁Stadtz	-9586
▁honourable	-9587
▁Ear	-9588
▁vision	-9589
▁highlight	-9590
▁Cam	-9591
▁ergeben	-9592
▁verbundenen	-9593
▁Tick	-9594
▁Anlage	-9595
▁burden	-9596
▁forced	-9597
▁reservation	-9598
inde	-9599
▁fern	-9600
prinzip	-9601
▁patent	-9602
▁empfehlen	-9603
▁beinhaltet	-9604
Date	-9605
▁Fire	-9606
hebung	-9607
kräfte	-9608
▁chair	-9609
▁Market	-9610
▁Elemente	-9611
stät	-9612
▁Rob	-9613
▁Kurs	-9614
▁liber	-9615
▁Drogen	-9616
handels	-9617
▁Support	-9618
▁White	-9619
▁Federal	-9620
▁neither	-9621
▁definition	-9622
Ge	-9623
▁Van	-9624
▁äuß	-9625
▁verf	-9626
▁Peter	-9627
▁Todes	-9628
▁appeal	-9629
▁diplomat	-9630
▁Budget	-9631
▁Company	-9632
▁(200	-9633
▁attach	-9634
▁Latin	-9635
▁Tisch	-9636
ifiziert	-9637
▁destroy	-9638
▁einfache	-9639
▁nütz	-9640
isierte	-9641
▁Option	-9642
▁Urs	-9643
▁Back	-9644
brauch	-9645
▁enfor	-9646
▁korre	-9647
▁passed	-9648
▁Gebrauch	-9649
▁32	-9650
oram	-9651
▁USB	-9652
▁luxury	-9653
▁corporate	-9654
det	-9655
▁erhöht	-9656
▁artists	-9657
rochen	-9658
▁Dollar	-9659
▁langen	-9660
▁Apparte	-9661
▁extended	-9662
▁bestätigt	-9663
alia	-9664
▁Aktionen	-9665
Fi	-9666
▁Mik	-9667
reibt	-9668
setzt	-9669
▁Verz	-9670
▁Indien	-9671
▁conclusions	-9672
▁Beschreibung	-9673
Das	-9674
▁Nav	-9675
hören	-9676
▁disease	-9677
▁surrounding	-9678
gibt	-9679
▁Quest	-9680
technik	-9681
▁Grunde	-9682
▁Nutzer	-9683
▁granted	-9684
▁Haut	-9685
▁motiv	-9686
▁outcome	-9687
▁Eindruck	-9688
▁convinced	-9689
erap	-9690
▁sogen	-9691
Ex	-9692
▁Justiz	-9693
▁Presse	-9694
▁beteiligt	-9695
▁Datenschutz	-9696
▁Universität	-9697
iam	-9698
log	-9699
▁Deutsche	-9700
▁Vertrie	-9701
▁legitim	-9702
▁weapons	-9703
▁contrary	-9704
▁Beschluss	-9705
▁betrachten	-9706
▁intervention	-9707
▁Opp	-9708
▁Greek	-9709
▁Special	-9710
▁reprodu	-9711
▁AR	-9712
zust	-9713
älfte	-9714
▁Städte	-9715
▁chosen	-9716
▁limits	-9717
▁dimension	-9718
-00	-9719
hlt	-9720
▁asyl	-9721
▁court	-9722
▁freie	-9723
onenten	-9724
▁compat	-9725
▁Eastern	-9726
bieten	-9727
▁confir	-9728
▁moving	-9729
▁expression	-9730
▁Griechenland	-9731
▁offensichtlich	-9732
xts	-9733
▁CH	-9734
▁jour	-9735
▁magn	-9736
Sterne	-9737
▁Reich	-9738
▁aufzu	-9739
▁schöne	-9740
▁furnished	-9741
▁por	-9742
äufer	-9743
▁Kohäs	-9744
▁cheap	-9745
▁grunds	-9746
▁Militär	-9747
:30	-9748
elbe	-9749
▁unit	-9750
▁2010.	-9751
▁Agency	-9752
▁Märkte	-9753
▁equality	-9754
ausschusses	-9755
▁sched	-9756
▁qualit	-9757
▁elected	-9758
▁na	-9759
reck	-9760
▁laid	-9761
▁Control	-9762
▁biggest	-9763
So	-9764
bald	-9765
äfen	-9766
straße	-9767
▁genet	-9768
▁(19	-9769
▁cra	-9770
▁hum	-9771
▁sam	-9772
asters	-9773
▁31	-9774
lägt	-9775
▁Ans	-9776
ismen	-9777
ibliothe	-9778
▁Mitteln	-9779
▁interface	-9780
▁forth	-9781
▁Austrian	-9782
▁internationaler	-9783
ags	-9784
ague	-9785
apers	-9786
▁earth	-9787
▁Gegensatz	-9788
▁spa	-9789
▁beob	-9790
gefähr	-9791
▁asylum	-9792
eller	-9793
nehmern	-9794
▁secret	-9795
▁registr	-9796
vorschlag	-9797
▁Wiederauf	-9798
▁sensitive	-9799
▁Ereignisse	-9800
▁Palestinian	-9801
▁Ausland	-9802
▁Bahnhof	-9803
▁Foreign	-9804
lege	-9805
▁finance	-9806
▁hauptsächlich	-9807
iov	-9808
ancy	-9809
▁Feld	-9810
▁näher	-9811
▁store	-9812
▁colour	-9813
▁Beihilfen	-9814
UN	-9815
uung	-9816
teten	-9817
▁begl	-9818
▁ausführ	-9819
▁condemn	-9820
▁solcher	-9821
▁britischen	-9822
▁Erklärungen	-9823
▁obligations	-9824
ickt	-9825
uters	-9826
▁Süden	-9827
▁balcon	-9828
▁flight	-9829
▁Hoffnung	-9830
▁investig	-9831
▁Grundrechte	-9832
iced	-9833
▁Zoll	-9834
▁pill	-9835
inning	-9836
▁Studien	-9837
▁Vermitt	-9838
▁someone	-9839
Reg	-9840
jet	-9841
▁tie	-9842
oret	-9843
▁Bla	-9844
▁Gut	-9845
endum	-9846
klang	-9847
▁fiscal	-9848
▁Weitere	-9849
▁spricht	-9850
▁Institute	-9851
▁perfectly	-9852
orial	-9853
▁Lord	-9854
▁guide	-9855
▁exklus	-9856
▁slight	-9857
▁Wirkung	-9858
▁successfully	-9859
▁analy	-9860
▁einsch	-9861
▁Fitness	-9862
▁Hinweis	-9863
▁factors	-9864
real	-9865
▁Third	-9866
▁enhan	-9867
▁Karten	-9868
▁payments	-9869
▁Leistungs	-9870
▁Gaz	-9871
▁rob	-9872
▁mode	-9873
▁drawn	-9874
▁festge	-9875
actions	-9876
glieder	-9877
schrift	-9878
▁stands	-9879
▁Nachdem	-9880
▁Dimension	-9881
aket	-9882
fest	-9883
▁Fraktionen	-9884
▁>	-9885
▁dient	-9886
▁MEP	-9887
▁Jeder	-9888
▁guter	-9889
▁tried	-9890
75	-9891
üb	-9892
ela	-9893
▁Lu	-9894
▁Mail	-9895
▁surv	-9896
▁grant	-9897
▁Resort	-9898
▁Studio	-9899
▁außerord	-9900
▁election	-9901
▁nationaler	-9902
▁einverstanden	-9903
heits	-9904
▁Monat	-9905
▁Niveau	-9906
▁agency	-9907
▁storage	-9908
▁beglückw	-9909
▁continuing	-9910
▁outstanding	-9911
Ber	-9912
SQL	-9913
erma	-9914
ügel	-9915
▁Jac	-9916
idung	-9917
▁obviously	-9918
▁correspond	-9919
uzz	-9920
▁swe	-9921
▁Thus	-9922
aub	-9923
erry	-9924
▁Croat	-9925
abilities	-9926
▁chemical	-9927
▁situations	-9928
▁umfassende	-9929
▁Verständnis	-9930
▁changing	-9931
▁gelungen	-9932
▁SD	-9933
leun	-9934
▁Dus	-9935
▁Glück	-9936
▁mittl	-9937
▁benach	-9938
▁retain	-9939
▁category	-9940
▁PPE	-9941
▁advice	-9942
▁Betriebs	-9943
De	-9944
▁(2	-9945
wers	-9946
▁Sur	-9947
▁erh	-9948
▁para	-9949
▁constantly	-9950
cco	-9951
▁Ve	-9952
alty	-9953
▁Pic	-9954
istry	-9955
▁Mutter	-9956
▁species	-9957
sequently	-9958
▁conclude	-9959
verein	-9960
▁asking	-9961
▁minute	-9962
▁reject	-9963
PC	-9964
ipe	-9965
▁36	-9966
▁enor	-9967
▁grie	-9968
worfen	-9969
▁Emiss	-9970
▁distin	-9971
▁steigen	-9972
▁organised	-9973
knü	-9974
▁Front	-9975
▁Agentur	-9976
unehm	-9977
obility	-9978
▁Empfehlungen	-9979
isure	-9980
▁route	-9981
▁vieler	-9982
management	-9983
▁speziellen	-9984
GO	-9985
▁dur	-9986
fähig	-9987
▁pour	-9988
▁weight	-9989
▁guaranteed	-9990
▁revolution	-9991
▁wesentlichen	-9992
▁ECU	-9993
▁rig	-9994
mittelt	-9995
reitung	-9996
▁notice	-9997
▁umwelt	-9998
▁Another	-9999
▁vehicle	-10000
▁communities	-10001
ünfte	-10002
▁daraus	-10003
enntnisse	-10004
▁prospect	-10005
governmental	-10006
▁Good	-10007
▁verk	-10008
▁erfre	-10009
▁teilnehmen	-10010
500	-10011
abl	-10012
▁Gesam	-10013
▁factor	-10014
▁privile	-10015
▁Flexibilität	-10016
▁Liberalisierung	-10017
Or	-10018
▁lake	-10019
▁Enjoy	-10020
▁rasch	-10021
▁title	-10022
▁Treffen	-10023
▁ep	-10024
ähren	-10025
ington	-10026
▁Palace	-10027
NL	-10028
umer	-10029
▁Both	-10030
▁goals	-10031
▁rightly	-10032
▁Gent	-10033
reitet	-10034
▁Square	-10035
▁Niederl	-10036
▁Prüfung	-10037
▁contents	-10038
▁lov	-10039
▁dete	-10040
▁preserv	-10041
▁participants	-10042
▁Unabhängigkeit	-10043
▁lä	-10044
▁lauf	-10045
ifications	-10046
abled	-10047
igned	-10048
wortet	-10049
▁Lizenz	-10050
▁putting	-10051
▁vergleich	-10052
bett	-10053
▁valu	-10054
ternen	-10055
▁update	-10056
▁dynamic	-10057
▁aircraft	-10058
▁allgemeine	-10059
ky	-10060
cap	-10061
zil	-10062
▁Pool	-10063
▁Summit	-10064
▁Realität	-10065
▁Teilnahme	-10066
▁erfordert	-10067
▁Sä	-10068
itar	-10069
▁Lag	-10070
utzung	-10071
▁Relig	-10072
▁massive	-10073
▁gehalten	-10074
▁geöffnet	-10075
▁möglichen	-10076
▁approximately	-10077
▁Eth	-10078
▁türk	-10079
ansion	-10080
▁Farben	-10081
▁Mindest	-10082
▁consists	-10083
▁candidate	-10084
▁colleague	-10085
App	-10086
▁nar	-10087
▁definit	-10088
▁landscape	-10089
TP	-10090
aces	-10091
▁sem	-10092
lichem	-10093
ulating	-10094
▁recommendations	-10095
8)	-10096
akete	-10097
▁Fert	-10098
annung	-10099
enswert	-10100
ktivität	-10101
otenzial	-10102
▁targets	-10103
▁yesterday	-10104
▁Dort	-10105
▁Erde	-10106
▁Trek	-10107
istenz	-10108
▁Located	-10109
▁Methode	-10110
▁einzigen	-10111
▁manchmal	-10112
▁accessible	-10113
▁expenditure	-10114
▁1995	-10115
▁count	-10116
▁print	-10117
anische	-10118
ichtete	-10119
▁Manager	-10120
▁Unterkunft	-10121
▁organization	-10122
down	-10123
▁Wür	-10124
utzer	-10125
tellect	-10126
▁Vorteil	-10127
▁capable	-10128
▁physical	-10129
▁Architektur	-10130
kurr	-10131
apter	-10132
wiesen	-10133
▁zählen	-10134
▁strengthening	-10135
CC	-10136
EU	-10137
▁Schne	-10138
▁Those	-10139
▁photos	-10140
MS	-10141
▁Ganz	-10142
▁acts	-10143
▁pred	-10144
▁sage	-10145
▁kaufen	-10146
▁contained	-10147
▁informiert	-10148
▁Arbeitsmarkt	-10149
kop	-10150
ending	-10151
▁Programms	-10152
▁regelmäßig	-10153
▁race	-10154
▁Kontroll	-10155
▁password	-10156
▁mechanism	-10157
▁resulting	-10158
▁12.	-10159
▁band	-10160
▁write	-10161
unehmend	-10162
▁ausländ	-10163
▁smaller	-10164
▁bringing	-10165
▁Touristen	-10166
▁zone	-10167
▁Erwart	-10168
▁Wechsel	-10169
▁Alliance	-10170
▁Beim	-10171
▁nearly	-10172
▁Verkauf	-10173
▁achieving	-10174
▁geschieht	-10175
▁vorgeschlagenen	-10176
▁explan	-10177
▁philosoph	-10178
▁satellite	-10179
▁Kooperation	-10180
trib	-10181
▁cool	-10182
gerung	-10183
▁Gebiete	-10184
▁id	-10185
auso	-10186
▁Beob	-10187
▁Entsp	-10188
▁labor	-10189
▁evaluation	-10190
▁9.	-10191
▁III	-10192
artner	-10193
▁submit	-10194
2010	-10195
wurf	-10196
▁Ros	-10197
▁webs	-10198
atures	-10199
▁Marken	-10200
▁sobald	-10201
▁weg	-10202
▁wealth	-10203
▁surrounded	-10204
▁Slow	-10205
▁sorgfält	-10206
information	-10207
mlich	-10208
▁Cypr	-10209
▁Risiken	-10210
▁Ferienwohn	-10211
▁acceptable	-10212
IE	-10213
▁EN	-10214
oster	-10215
▁jungen	-10216
▁#	-10217
fers	-10218
▁Old	-10219
▁Vom	-10220
▁Schm	-10221
▁ideale	-10222
▁waiting	-10223
▁convention	-10224
▁festgestellt	-10225
annes	-10226
▁beachten	-10227
▁Politiker	-10228
▁registration	-10229
▁Fax	-10230
bürger	-10231
▁books	-10232
▁Zahlen	-10233
▁treten	-10234
gbarkeit	-10235
▁niemand	-10236
▁zugleich	-10237
▁JavaScript	-10238
urm	-10239
▁("	-10240
ermal	-10241
▁sell	-10242
▁starke	-10243
▁teilen	-10244
iot	-10245
▁Inc	-10246
▁Blog	-10247
▁bound	-10248
bination	-10249
▁Überprüfung	-10250
▁Veranstaltungen	-10251
eind	-10252
wachst	-10253
otten	-10254
endung	-10255
▁Bedarf	-10256
▁Streit	-10257
▁mittels	-10258
▁ambitious	-10259
▁Kor	-10260
▁glad	-10261
▁reve	-10262
▁causes	-10263
▁jüngsten	-10264
▁Botschaft	-10265
▁contemporary	-10266
▁blog	-10267
▁Alban	-10268
▁southern	-10269
▁übernommen	-10270
▁Zuf	-10271
▁Prakt	-10272
▁unternommen	-10273
▁River	-10274
▁begann	-10275
▁Mitglieds	-10276
▁zunehmend	-10277
cast	-10278
▁bars	-10279
▁micro	-10280
▁liability	-10281
ques	-10282
▁Nik	-10283
▁Jose	-10284
▁Kopf	-10285
▁acht	-10286
ählten	-10287
vereign	-10288
▁Welche	-10289
▁berecht	-10290
▁Marketing	-10291
▁praktisch	-10292
▁Koordinierung	-10293
MO	-10294
▁4,	-10295
▁blue	-10296
▁gewiss	-10297
▁decades	-10298
▁identity	-10299
▁sovereign	-10300
ategorie	-10301
▁explain	-10302
▁herzlich	-10303
nes	-10304
wegs	-10305
▁wachs	-10306
▁brings	-10307
▁selten	-10308
▁underg	-10309
▁primarily	-10310
sph	-10311
▁dé	-10312
▁toler	-10313
ssystem	-10314
▁overlo	-10315
▁schneller	-10316
▁traditionellen	-10317
Ein	-10318
üben	-10319
▁Syr	-10320
▁Energy	-10321
▁planned	-10322
▁argument	-10323
▁andererseits	-10324
▁Sweden	-10325
▁adequate	-10326
▁patients	-10327
▁Landschaft	-10328
▁diskutiert	-10329
35	-10330
▁{{	-10331
imal	-10332
▁fir	-10333
▁Chem	-10334
▁Ebenso	-10335
inations	-10336
▁grammat	-10337
▁medizin	-10338
▁Anpassung	-10339
▁18.	-10340
ablen	-10341
▁Maria	-10342
▁surpr	-10343
▁Chamber	-10344
")	-10345
▁Sun	-10346
▁amt	-10347
aschen	-10348
▁assum	-10349
▁audio	-10350
▁operate	-10351
▁independence	-10352
▁Tom	-10353
cling	-10354
▁Provin	-10355
▁betroffenen	-10356
▁5-	-10357
Bahn	-10358
▁lau	-10359
▁Alter	-10360
▁divid	-10361
▁inhab	-10362
▁grounds	-10363
richtlinie	-10364
▁intention	-10365
▁Mitgliedern	-10366
]].	-10367
▁defic	-10368
▁Island	-10369
▁authent	-10370
▁überein	-10371
▁Via	-10372
istungs	-10373
▁regret	-10374
▁Apartment	-10375
▁safeguard	-10376
▁gemeinschaft	-10377
iest	-10378
vier	-10379
▁sec	-10380
kunden	-10381
▁Royal	-10382
▁Garden	-10383
▁attend	-10384
▁examples	-10385
▁recovery	-10386
▁Gesetzgebung	-10387
ints	-10388
▁nav	-10389
▁pun	-10390
orrup	-10391
▁Phase	-10392
▁Romania	-10393
▁erneuer	-10394
▁Financial	-10395
▁Hauptstadt	-10396
▁Ref	-10397
▁leads	-10398
▁Hälfte	-10399
▁optimal	-10400
▁sichern	-10401
▁berühmten	-10402
▁Vorbereitung	-10403
▁OS	-10404
asen	-10405
nahm	-10406
▁Los	-10407
odurch	-10408
▁Press	-10409
▁nations	-10410
entscheid	-10411
car	-10412
▁ung	-10413
▁Sprach	-10414
▁Dutch	-10415
▁schools	-10416
▁seeking	-10417
▁besseren	-10418
▁determined	-10419
▁hergestellt	-10420
▁ap	-10421
iser	-10422
▁snow	-10423
▁Autor	-10424
▁Inseln	-10425
▁betrie	-10426
▁damals	-10427
▁balanced	-10428
▁OF	-10429
▁250	-10430
▁abhäng	-10431
▁echte	-10432
▁finde	-10433
▁Friedens	-10434
▁Methoden	-10435
▁Pop	-10436
wechs	-10437
▁Erhöhung	-10438
▁weiteres	-10439
▁Effizienz	-10440
▁Klimaanlage	-10441
▁manufacturing	-10442
▁Internationalen	-10443
7)	-10444
==	-10445
heber	-10446
▁reinfor	-10447
▁vorschlagen	-10448
SV	-10449
utr	-10450
rant	-10451
splan	-10452
ampagne	-10453
ifellos	-10454
▁Teilen	-10455
▁Journal	-10456
▁pointed	-10457
▁Ca	-10458
▁beruf	-10459
▁kontext	-10460
▁anerkannt	-10461
organisationen	-10462
gin	-10463
warz	-10464
▁Argent	-10465
▁Direkt	-10466
▁Einkaufs	-10467
▁positiven	-10468
zeß	-10469
▁Win	-10470
enses	-10471
▁fand	-10472
▁schn	-10473
▁Männer	-10474
▁representative	-10475
▁Diskriminierung	-10476
▁BM	-10477
▁dig	-10478
phrase	-10479
▁fraud	-10480
▁Übern	-10481
▁pleasure	-10482
▁requested	-10483
▁akzeptiert	-10484
▁prevention	-10485
▁Nice	-10486
▁trend	-10487
zwungen	-10488
▁multiple	-10489
▁führenden	-10490
▁Nichtraucher	-10491
▁quot	-10492
▁Autob	-10493
▁Pflicht	-10494
ränkungen	-10495
▁Formular	-10496
▁beschäftigt	-10497
▁́s	-10498
-200	-10499
▁anf	-10500
▁copy	-10501
▁1980	-10502
▁fuel	-10503
sprüche	-10504
▁Zustand	-10505
▁zunehmen	-10506
artet	-10507
inent	-10508
▁rock	-10509
▁kinds	-10510
▁letter	-10511
▁incorpor	-10512
▁proportion	-10513
▁persönliche	-10514
lebt	-10515
atlant	-10516
▁Andre	-10517
▁Obama	-10518
▁steel	-10519
▁Erwach	-10520
▁merely	-10521
▁Ordnung	-10522
▁kleiner	-10523
▁Gedanken	-10524
fel	-10525
▁Ban	-10526
▁Kaffe	-10527
▁Charter	-10528
▁Experten	-10529
▁einzelne	-10530
▁investments	-10531
▁sicherstellen	-10532
▁Voraussetzungen	-10533
Gen	-10534
sid	-10535
▁ta	-10536
▁voc	-10537
▁Glas	-10538
▁Korea	-10539
▁Eltern	-10540
▁diesbe	-10541
▁attacks	-10542
entlichen	-10543
vely	-10544
▁siehe	-10545
▁jemand	-10546
▁wodurch	-10547
▁association	-10548
cin	-10549
▁Joh	-10550
iquid	-10551
▁gebe	-10552
border	-10553
▁Tiere	-10554
arium	-10555
▁junge	-10556
▁Ausnahme	-10557
gesellschaften	-10558
Adr	-10559
▁Merk	-10560
▁Rund	-10561
ermaßen	-10562
termine	-10563
▁discussing	-10564
▁Stadtzentrum	-10565
▁Akte	-10566
▁bran	-10567
▁angeht	-10568
▁systemat	-10569
86	-10570
fa	-10571
▁Bosn	-10572
position	-10573
produktion	-10574
▁nachhaltige	-10575
▁Know	-10576
▁Admin	-10577
▁phase	-10578
▁respekt	-10579
gien	-10580
▁800	-10581
iling	-10582
issens	-10583
▁bon	-10584
plant	-10585
▁vorbe	-10586
▁dritten	-10587
▁accounts	-10588
▁disposal	-10589
▁Fähigkeit	-10590
ady	-10591
▁barr	-10592
▁Rules	-10593
▁Thanks	-10594
▁master	-10595
▁orders	-10596
▁waters	-10597
▁primary	-10598
▁seitens	-10599
▁behandeln	-10600
▁Hor	-10601
▁Jes	-10602
▁Willen	-10603
▁addressed	-10604
ão	-10605
▁Ton	-10606
▁prepare	-10607
▁kürzlich	-10608
▁Gegenteil	-10609
▁expensive	-10610
▁Bestandteil	-10611
ädt	-10612
▁Flä	-10613
▁Class	-10614
▁named	-10615
▁talks	-10616
▁charming	-10617
▁bere	-10618
▁unanim	-10619
gänglich	-10620
▁amongst	-10621
▁leadership	-10622
▁wichtigste	-10623
▁recommended	-10624
hrt	-10625
odes	-10626
▁spät	-10627
▁Report	-10628
▁vulner	-10629
▁deutsche	-10630
▁delivered	-10631
ventions	-10632
▁Kollege	-10633
▁irgende	-10634
▁Angebote	-10635
reis	-10636
ress	-10637
eshalb	-10638
▁abgele	-10639
▁Fischer	-10640
▁sinnvoll	-10641
▁versions	-10642
tellectual	-10643
▁Unterschiede	-10644
alys	-10645
ahnen	-10646
▁Wahrheit	-10647
DR	-10648
folio	-10649
legte	-10650
lebnis	-10651
▁Freude	-10652
▁willkommen	-10653
äume	-10654
▁Two	-10655
▁Repr	-10656
▁heavy	-10657
▁Publik	-10658
▁Angriff	-10659
▁browser	-10660
hel	-10661
ktop	-10662
▁School	-10663
bereiche	-10664
▁fashion	-10665
▁anbieten	-10666
▁Dach	-10667
▁Laufe	-10668
▁Revolution	-10669
rot	-10670
lles	-10671
venue	-10672
▁cook	-10673
▁Dublin	-10674
▁Norden	-10675
▁sieben	-10676
▁verstärkt	-10677
oß	-10678
Der	-10679
▁Sud	-10680
tehen	-10681
▁sets	-10682
selben	-10683
▁Liebe	-10684
ausende	-10685
▁Zimmern	-10686
going	-10687
▁spok	-10688
griffe	-10689
ktions	-10690
fertigt	-10691
▁Patent	-10692
▁Einklang	-10693
▁Freizeit	-10694
zur	-10695
▁User	-10696
▁onto	-10697
station	-10698
▁journal	-10699
▁compensation	-10700
iry	-10701
▁AB	-10702
▁15.	-10703
▁genü	-10704
sichts	-10705
▁griech	-10706
▁Aufgrund	-10707
▁furniture	-10708
▁mechanisms	-10709
▁Berücksicht	-10710
iary	-10711
sein	-10712
▁17.	-10713
▁Bek	-10714
▁dah	-10715
▁dry	-10716
itime	-10717
▁mail	-10718
igsten	-10719
▁diverse	-10720
▁industries	-10721
TER	-10722
▁lag	-10723
izont	-10724
▁Handeln	-10725
rist	-10726
stat	-10727
▁capt	-10728
▁Follow	-10729
▁consensus	-10730
folgerungen	-10731
▁governance	-10732
zed	-10733
iern	-10734
asten	-10735
▁Mach	-10736
▁aktual	-10737
33	-10738
UM	-10739
ancen	-10740
▁mutual	-10741
▁thereby	-10742
ciliation	-10743
▁unterschiedlich	-10744
TE	-10745
▁Pin	-10746
place	-10747
▁thre	-10748
▁fällt	-10749
▁Gefühl	-10750
▁belong	-10751
▁vielfält	-10752
kurs	-10753
▁flat	-10754
gramms	-10755
rokrat	-10756
▁repeated	-10757
()	-10758
▁Tai	-10759
▁Stunde	-10760
▁speakers	-10761
▁ländlichen	-10762
▁consultation	-10763
▁Voraussetzung	-10764
ource	-10765
▁gespe	-10766
▁imper	-10767
▁spaces	-10768
▁verteid	-10769
▁manufacturers	-10770
▁corner	-10771
▁exceed	-10772
gebracht	-10773
▁zustimmen	-10774
▁landwirtschaft	-10775
▁Os	-10776
gence	-10777
▁spot	-10778
▁2009,	-10779
▁disch	-10780
▁Rotary	-10781
▁improvements	-10782
▁italienischen	-10783
▁Graf	-10784
absicht	-10785
▁Absicht	-10786
▁48	-10787
oples	-10788
netz	-10789
▁moved	-10790
▁truth	-10791
▁verlieren	-10792
▁5,	-10793
verw	-10794
igern	-10795
▁Sein	-10796
▁urge	-10797
ieties	-10798
▁bureau	-10799
▁resolve	-10800
▁Perspekt	-10801
▁reagieren	-10802
▁Einwanderung	-10803
▁Bol	-10804
licit	-10805
pielt	-10806
uttle	-10807
▁wall	-10808
▁Flash	-10809
▁Wegen	-10810
▁error	-10811
abilität	-10812
▁consolid	-10813
▁previously	-10814
▁taxes	-10815
strategie	-10816
▁Pflanzen	-10817
▁attitude	-10818
▁Schwerpunkt	-10819
▁Rem	-10820
▁knows	-10821
▁testing	-10822
▁vielmehr	-10823
▁Verbesser	-10824
▁qualified	-10825
▁obligation	-10826
▁Diskussionen	-10827
geiz	-10828
essor	-10829
sprach	-10830
▁Rumän	-10831
▁seien	-10832
▁Gästen	-10833
▁betont	-10834
dete	-10835
iana	-10836
▁Egypt	-10837
▁begonnen	-10838
sec	-10839
▁od	-10840
anger	-10841
owned	-10842
unsten	-10843
▁Valle	-10844
▁reply	-10845
▁Morgen	-10846
▁Fremden	-10847
▁driving	-10848
▁Reaktion	-10849
▁demokratische	-10850
▁TO	-10851
ahrt	-10852
▁mel	-10853
▁Prodi	-10854
▁corrup	-10855
▁Fenster	-10856
▁Schäden	-10857
▁gewisse	-10858
grundlage	-10859
SA	-10860
kret	-10861
▁Roh	-10862
▁adj	-10863
orgnis	-10864
orough	-10865
▁Fälle	-10866
beziehung	-10867
▁Jahrzehn	-10868
▁Wachstums	-10869
▁Klimawandel	-10870
ungsverfahren	-10871
ès	-10872
▁bio	-10873
▁Rich	-10874
▁flow	-10875
▁Before	-10876
▁existence	-10877
▁vorgenommen	-10878
▁Untersuchung	-10879
Chr	-10880
rest	-10881
▁Jack	-10882
▁Kyoto	-10883
jection	-10884
▁Anliegen	-10885
erungs	-10886
▁Express	-10887
▁Komment	-10888
▁starken	-10889
▁ergriffen	-10890
▁territorial	-10891
,"	-10892
rechten	-10893
▁Freunde	-10894
▁meist	-10895
▁München	-10896
▁bewegen	-10897
teen	-10898
▁fed	-10899
▁Swed	-10900
iating	-10901
▁2008.	-10902
▁blood	-10903
▁noise	-10904
▁Munich	-10905
▁dishes	-10906
▁diversity	-10907
ask	-10908
▁600	-10909
▁wait	-10910
▁eight	-10911
cluding	-10912
ichteten	-10913
▁feeling	-10914
▁withdraw	-10915
aks	-10916
icon	-10917
▁fif	-10918
▁laut	-10919
igerung	-10920
EF	-10921
▁older	-10922
klärung	-10923
▁nation	-10924
▁gewählt	-10925
▁Umständen	-10926
▁Verhältnis	-10927
▁Lö	-10928
▁1994	-10929
▁hall	-10930
stände	-10931
▁David	-10932
▁parad	-10933
▁tours	-10934
▁Brazil	-10935
Tra	-10936
▁felt	-10937
▁inten	-10938
▁elegan	-10939
▁extreme	-10940
▁liefern	-10941
▁treated	-10942
▁transform	-10943
▁Unterschied	-10944
▁Strukturfonds	-10945
baut	-10946
spar	-10947
ulted	-10948
▁Kong	-10949
ported	-10950
spruchs	-10951
▁inspir	-10952
▁default	-10953
▁rejected	-10954
▁consistent	-10955
▁Veröffentlich	-10956
▁trees	-10957
zahlung	-10958
▁Church	-10959
▁Dadurch	-10960
▁Minutes	-10961
▁binding	-10962
▁opposite	-10963
▁wiederum	-10964
▁dealt	-10965
▁Vision	-10966
▁launched	-10967
theit	-10968
▁Dafür	-10969
▁geist	-10970
▁turned	-10971
▁Bedenken	-10972
64	-10973
züg	-10974
metho	-10975
enture	-10976
sparte	-10977
jährige	-10978
▁umfass	-10979
▁doll	-10980
▁remove	-10981
▁kompliz	-10982
nd	-10983
iegen	-10984
füllung	-10985
▁ziemlich	-10986
▁überzeugen	-10987
▁gesellschaft	-10988
▁entlang	-10989
▁privacy	-10990
▁websites	-10991
otte	-10992
wood	-10993
akers	-10994
▁helping	-10995
▁hervorge	-10996
▁Verfügbarkeit	-10997
reb	-10998
kehren	-10999
▁Straf	-11000
▁engag	-11001
▁grand	-11002
▁zeich	-11003
ischung	-11004
▁Airbus	-11005
▁Details	-11006
▁Kombination	-11007
mechan	-11008
▁requests	-11009
▁derzeitigen	-11010
▁experiences	-11011
pped	-11012
▁190	-11013
▁leisure	-11014
▁whatever	-11015
▁represented	-11016
TS	-11017
enter	-11018
▁bildet	-11019
▁Amerika	-11020
▁Gesetze	-11021
öp	-11022
kund	-11023
▁Law	-11024
▁helps	-11025
▁fordert	-11026
▁umgeben	-11027
▁ehemaligen	-11028
größ	-11029
▁Jean	-11030
imately	-11031
▁keines	-11032
▁wichtiges	-11033
▁außergewöhn	-11034
▁Eigenschaften	-11035
▁comply	-11036
▁expertise	-11037
gg	-11038
onte	-11039
uver	-11040
zahlt	-11041
▁globale	-11042
▁valuable	-11043
▁destination	-11044
▁exclusively	-11045
▁Dienstleistungs	-11046
▁Div	-11047
ifall	-11048
▁Stück	-11049
▁Spiele	-11050
29	-11051
▁120	-11052
iform	-11053
ilding	-11054
▁Champ	-11055
▁sleep	-11056
ispiele	-11057
tragung	-11058
▁Profession	-11059
▁EG	-11060
▁ye	-11061
▁Tit	-11062
▁plug	-11063
▁Kunde	-11064
▁sights	-11065
▁pension	-11066
▁applicable	-11067
▁entspannen	-11068
▁Bio	-11069
fällen	-11070
▁nochmals	-11071
▁Austausch	-11072
▁advantages	-11073
▁Allgemeinen	-11074
gro	-11075
fare	-11076
▁Zul	-11077
lechter	-11078
▁Schulden	-11079
▁Antworten	-11080
▁Nachrichten	-11081
uries	-11082
igence	-11083
▁Refer	-11084
▁Gewinn	-11085
▁attemp	-11086
▁Dokumente	-11087
▁fantastic	-11088
▁beiz	-11089
▁läng	-11090
▁skin	-11091
▁führte	-11092
▁objects	-11093
ikas	-11094
akten	-11095
▁100%	-11096
▁Holl	-11097
bereitet	-11098
▁welchen	-11099
▁respective	-11100
▁Bor	-11101
▁rot	-11102
lause	-11103
lesen	-11104
bahnhof	-11105
▁sprach	-11106
▁presentation	-11107
fügt	-11108
▁Bör	-11109
▁units	-11110
▁Grundsätze	-11111
▁substances	-11112
▁Que	-11113
▁Atom	-11114
▁Klim	-11115
▁Take	-11116
▁mini	-11117
▁peoples	-11118
▁thorough	-11119
▁subsidiar	-11120
AV	-11121
uj	-11122
▁Set	-11123
▁leiden	-11124
▁Dra	-11125
▁eye	-11126
▁switch	-11127
maschinen	-11128
hop	-11129
▁gepr	-11130
▁Strategien	-11131
▁temperature	-11132
▁significantly	-11133
▁Berufs	-11134
▁wenden	-11135
▁Bewegung	-11136
▁Vielleicht	-11137
uds	-11138
zza	-11139
grad	-11140
▁whe	-11141
▁lose	-11142
▁Paper	-11143
zubauen	-11144
▁Premier	-11145
▁reichen	-11146
▁historische	-11147
acher	-11148
▁Essen	-11149
▁alter	-11150
meister	-11151
▁whilst	-11152
▁sanctions	-11153
istribution	-11154
▁Turn	-11155
▁proud	-11156
▁latter	-11157
uste	-11158
▁maß	-11159
ameras	-11160
▁stone	-11161
▁dinner	-11162
▁museum	-11163
▁zuverläss	-11164
▁expectations	-11165
▁sod	-11166
▁nötig	-11167
▁finding	-11168
▁stations	-11169
uropäischen	-11170
class	-11171
▁Präs	-11172
▁Sonn	-11173
▁arms	-11174
▁dele	-11175
▁Sound	-11176
▁entre	-11177
▁marked	-11178
▁schlecht	-11179
wirt	-11180
▁Ferner	-11181
▁permit	-11182
Mitglied	-11183
▁Zugriff	-11184
Th	-11185
▁Il	-11186
▁Exec	-11187
▁lock	-11188
▁rare	-11189
▁firstly	-11190
▁emphasis	-11191
▁familiar	-11192
▁operators	-11193
▁compliance	-11194
▁Hong	-11195
▁breat	-11196
▁fried	-11197
▁configur	-11198
▁Temperatur	-11199
▁politicians	-11200
▁Minderheiten	-11201
▁п	-11202
vol	-11203
▁Zahlungs	-11204
▁Eisenbahn	-11205
rote	-11206
▁dog	-11207
▁pil	-11208
▁obst	-11209
▁genauso	-11210
▁happens	-11211
▁Badezimmer	-11212
▁Umweltschutz	-11213
stoffen	-11214
▁Action	-11215
▁kombin	-11216
handlungs	-11217
▁Datenbank	-11218
▁entdecken	-11219
▁extension	-11220
krit	-11221
▁Lou	-11222
▁fill	-11223
ätzung	-11224
▁Küste	-11225
▁entered	-11226
▁determine	-11227
▁durchzuführen	-11228
DS	-11229
▁adap	-11230
▁engl	-11231
berecht	-11232
▁eröffnet	-11233
▁regionale	-11234
oßen	-11235
▁1000	-11236
▁Kreat	-11237
▁millions	-11238
▁betreffen	-11239
▁verlangen	-11240
▁16.	-11241
▁runs	-11242
▁output	-11243
▁künftig	-11244
▁Schweden	-11245
▁refugees	-11246
▁politisch	-11247
▁schließen	-11248
▁appreciate	-11249
▁technological	-11250
▁Rub	-11251
▁Disc	-11252
abling	-11253
schule	-11254
▁drugs	-11255
▁höchst	-11256
▁Verbrechen	-11257
hard	-11258
▁14.	-11259
behörden	-11260
▁Adresse	-11261
▁Despite	-11262
▁hostels	-11263
ani	-11264
ährt	-11265
▁GNU	-11266
▁birth	-11267
▁shape	-11268
▁Grenze	-11269
▁Fahrzeug	-11270
▁Original	-11271
▁Verträge	-11272
▁befassen	-11273
▁Ministers	-11274
▁emphasise	-11275
27	-11276
▁0,	-11277
ierend	-11278
stitut	-11279
▁Monte	-11280
▁hoher	-11281
▁Engine	-11282
▁Kranken	-11283
▁Theater	-11284
▁Ungleich	-11285
▁straight	-11286
▁erweitert	-11287
▁schönsten	-11288
ikte	-11289
▁Malt	-11290
▁Welcome	-11291
▁spezial	-11292
ettbewerbs	-11293
▁combating	-11294
▁entertainment	-11295
vak	-11296
▁gült	-11297
essene	-11298
▁Skype	-11299
▁covers	-11300
▁gestern	-11301
▁Englisch	-11302
▁Materialien	-11303
▁Wirklichkeit	-11304
▁Tim	-11305
▁eyes	-11306
▁hilft	-11307
▁affairs	-11308
▁bezieht	-11309
▁articles	-11310
▁bedrooms	-11311
▁spanischen	-11312
izz	-11313
▁cold	-11314
▁chain	-11315
flächen	-11316
▁bekannten	-11317
▁competence	-11318
▁delegation	-11319
▁Einstellung	-11320
▁zusätzlichen	-11321
ér	-11322
code	-11323
erte	-11324
deten	-11325
▁Rock	-11326
▁Tibet	-11327
▁bedarf	-11328
schaffen	-11329
▁journey	-11330
what	-11331
▁Baum	-11332
▁hair	-11333
▁zuge	-11334
▁basiert	-11335
▁trotzdem	-11336
▁Ty	-11337
▁Erwä	-11338
▁pick	-11339
▁sofern	-11340
▁streets	-11341
▁bedeuten	-11342
isc	-11343
▁wild	-11344
▁gather	-11345
▁höhere	-11346
▁öffnen	-11347
▁Konsequ	-11348
▁Schloss	-11349
▁Bulgaria	-11350
▁abhängig	-11351
▁parallel	-11352
▁schwierigen	-11353
▁Mut	-11354
apest	-11355
finanz	-11356
struction	-11357
ungsbereich	-11358
▁menschlichen	-11359
pers	-11360
▁mur	-11361
bauen	-11362
▁Ohne	-11363
▁Dauer	-11364
▁Player	-11365
formance	-11366
wareness	-11367
▁Britain	-11368
▁recognised	-11369
uy	-11370
prech	-11371
ingesch	-11372
▁deiner	-11373
▁Mittelpunkt	-11374
kur	-11375
▁Burg	-11376
▁geprü	-11377
▁religi	-11378
▁Swedish	-11379
▁amounts	-11380
ventionen	-11381
hme	-11382
ergie	-11383
▁trial	-11384
▁Westen	-11385
▁gebaut	-11386
▁disaster	-11387
▁verändern	-11388
▁Agrarpolitik	-11389
GB	-11390
▁si	-11391
uens	-11392
▁Tax	-11393
andon	-11394
▁Safety	-11395
▁Gesicht	-11396
▁wesentliche	-11397
AB	-11398
▁cm	-11399
▁Grad	-11400
▁falsch	-11401
▁keeping	-11402
▁Sanktionen	-11403
▁directives	-11404
▁Übersetzung	-11405
neter	-11406
▁Balt	-11407
▁Plaza	-11408
▁Suite	-11409
▁estim	-11410
▁Delegation	-11411
ст	-11412
▁Use	-11413
▁Amts	-11414
▁texts	-11415
politischen	-11416
itäre	-11417
▁approval	-11418
▁soft	-11419
region	-11420
▁angep	-11421
▁centres	-11422
▁obtained	-11423
▁threaten	-11424
▁discharge	-11425
▁discovered	-11426
▁Show	-11427
▁suite	-11428
▁opposed	-11429
▁Behinder	-11430
▁Director	-11431
▁konkreten	-11432
▁recognise	-11433
▁tests	-11434
ugnisse	-11435
▁afford	-11436
▁strugg	-11437
▁Registr	-11438
▁involving	-11439
▁Fer	-11440
▁Fluss	-11441
▁remaining	-11442
▁engineering	-11443
ählte	-11444
▁exem	-11445
▁erhältlich	-11446
▁weltweiten	-11447
eds	-11448
▁eur	-11449
light	-11450
rüstung	-11451
▁Schule	-11452
▁exists	-11453
▁complic	-11454
▁Beratung	-11455
▁passengers	-11456
▁relatively	-11457
▁Alternative	-11458
aser	-11459
▁vast	-11460
▁outdoor	-11461
▁Maßnahme	-11462
iga	-11463
ito	-11464
rohung	-11465
▁Genehm	-11466
▁Signal	-11467
▁mobility	-11468
▁zugänglich	-11469
▁ursprünglichen	-11470
ère	-11471
▁Krie	-11472
▁piece	-11473
service	-11474
▁Bestell	-11475
▁Hindern	-11476
▁beträgt	-11477
▁offices	-11478
▁qualifiz	-11479
▁suffering	-11480
▁erscheinen	-11481
▁favor	-11482
▁organizations	-11483
28	-11484
▁PR	-11485
▁Frü	-11486
▁Menü	-11487
trächt	-11488
▁Jedes	-11489
▁accom	-11490
▁cancel	-11491
icip	-11492
reds	-11493
▁13.	-11494
▁Town	-11495
▁dict	-11496
▁stake	-11497
▁Meinungs	-11498
▁höchsten	-11499
▁jährlich	-11500
▁Definition	-11501
▁involvement	-11502
atre	-11503
▁Fac	-11504
antly	-11505
▁decis	-11506
▁solve	-11507
▁Besitz	-11508
▁renewable	-11509
▁Leitlinien	-11510
▁Technology	-11511
▁umfassenden	-11512
▁intellectual	-11513
uchte	-11514
▁2008,	-11515
▁MySQL	-11516
▁reden	-11517
okument	-11518
▁Beweis	-11519
▁danger	-11520
astronom	-11521
▁impression	-11522
▁Krankheiten	-11523
läne	-11524
▁Time	-11525
actory	-11526
▁sicht	-11527
/1	-11528
win	-11529
oler	-11530
▁2011	-11531
▁meat	-11532
stance	-11533
meldung	-11534
▁voller	-11535
▁eigenes	-11536
,00	-11537
▁2.0	-11538
▁Hans	-11539
▁vess	-11540
▁repeat	-11541
▁besitzen	-11542
▁residence	-11543
pol	-11544
uing	-11545
▁Pay	-11546
kommt	-11547
▁bureauc	-11548
stehenden	-11549
▁personally	-11550
▁liberalisation	-11551
bil	-11552
▁Sov	-11553
▁Farbe	-11554
▁veran	-11555
▁Bauern	-11556
▁Ambiente	-11557
▁abgelehnt	-11558
▁Erwartungen	-11559
▁GDP	-11560
▁läuft	-11561
▁removed	-11562
▁verändert	-11563
▁arrangements	-11564
mo	-11565
urger	-11566
reuung	-11567
▁dining	-11568
▁healthy	-11569
▁koordin	-11570
▁Strategy	-11571
▁universal	-11572
▁geschrieben	-11573
einrichtungen	-11574
new	-11575
obe	-11576
adow	-11577
fallen	-11578
quellen	-11579
▁obstac	-11580
▁weather	-11581
▁wirksam	-11582
▁communications	-11583
hi	-11584
col	-11585
cts	-11586
oria	-11587
▁laden	-11588
uführen	-11589
▁Reisen	-11590
▁reicht	-11591
▁niemals	-11592
49	-11593
▁Ep	-11594
ochen	-11595
örung	-11596
▁diseases	-11597
▁Ausstattung	-11598
▁Ren	-11599
▁walls	-11600
unktions	-11601
▁equally	-11602
▁Studenten	-11603
▁einerseits	-11604
vec	-11605
idden	-11606
▁Cook	-11607
lieben	-11608
▁Secret	-11609
▁acquis	-11610
▁gewalt	-11611
Programm	-11612
▁direkte	-11613
▁kulturelle	-11614
west	-11615
▁Termin	-11616
▁exceptional	-11617
aal	-11618
tten	-11619
▁Franc	-11620
▁figure	-11621
▁confirmed	-11622
Se	-11623
tellte	-11624
▁treaty	-11625
▁zuerst	-11626
▁Instead	-11627
▁leaving	-11628
▁zurückge	-11629
▁37	-11630
▁Lim	-11631
▁Anti	-11632
▁MEPs	-11633
▁rank	-11634
▁Kroat	-11635
▁helped	-11636
▁intend	-11637
én	-11638
bek	-11639
opt	-11640
inken	-11641
verletz	-11642
▁strategies	-11643
▁zweifellos	-11644
▁installiert	-11645
flug	-11646
▁Caf	-11647
▁Kann	-11648
▁foll	-11649
▁bemüht	-11650
▁volume	-11651
▁opinions	-11652
erechtigkeit	-11653
▁Veranstaltung	-11654
far	-11655
mes	-11656
▁Sad	-11657
▁sla	-11658
▁Zusatz	-11659
▁senden	-11660
▁license	-11661
▁contracts	-11662
usal	-11663
isory	-11664
▁conserv	-11665
▁Beispiele	-11666
▁officials	-11667
weisung	-11668
▁Studie	-11669
▁spring	-11670
gelassen	-11671
▁impressive	-11672
▁beschrieben	-11673
,”	-11674
▁Like	-11675
▁phen	-11676
▁kurzem	-11677
▁gezogen	-11678
▁unmittelbar	-11679
▁ausgesprochen	-11680
▁ausgezeichnete	-11681
ossen	-11682
▁Heiz	-11683
▁Nahen	-11684
▁Radio	-11685
▁Hostelsclub	-11686
▁Verbesserungen	-11687
zin	-11688
chron	-11689
inuier	-11690
▁Kapaz	-11691
wechsel	-11692
▁Krisen	-11693
▁fühlen	-11694
▁offenen	-11695
▁happening	-11696
▁Strukturen	-11697
▁Übereinstimmung	-11698
umping	-11699
amerika	-11700
▁Umgang	-11701
▁gelegt	-11702
▁starten	-11703
▁Nachfrage	-11704
▁Luxembourg	-11705
▁hervorragende	-11706
räften	-11707
▁betreffenden	-11708
irk	-11709
▁Late	-11710
▁Noch	-11711
▁Weiß	-11712
▁außen	-11713
▁älter	-11714
trieben	-11715
▁awareness	-11716
▁increases	-11717
▁Kandidaten	-11718
▁Sens	-11719
▁util	-11720
MA	-11721
TML	-11722
abwe	-11723
dire	-11724
ties	-11725
▁Tel	-11726
▁Wähl	-11727
▁Geräte	-11728
▁inhabit	-11729
äger	-11730
▁couple	-11731
▁stattf	-11732
▁underm	-11733
▁anstatt	-11734
▁aufzunehmen	-11735
3)	-11736
ef	-11737
ikes	-11738
▁Mall	-11739
▁Wash	-11740
▁Ungar	-11741
▁Croatia	-11742
▁largely	-11743
▁funktionieren	-11744
4)	-11745
▁Expl	-11746
▁George	-11747
▁Tagung	-11748
▁reserve	-11749
▁interessiert	-11750
▁Nahrungsmittel	-11751
▁Aqu	-11752
▁Ret	-11753
ällig	-11754
trägen	-11755
ändler	-11756
▁Music	-11757
▁Govern	-11758
▁anspruchs	-11759
▁gefördert	-11760
▁inzwischen	-11761
uden	-11762
▁BSE	-11763
▁Vir	-11764
andal	-11765
dessen	-11766
▁Vater	-11767
▁anwes	-11768
▁balcony	-11769
inational	-11770
ati	-11771
aul	-11772
well	-11773
üren	-11774
▁Farb	-11775
gendes	-11776
▁cable	-11777
▁faith	-11778
▁youth	-11779
▁Canada	-11780
▁incent	-11781
grenzung	-11782
▁Erinner	-11783
▁fighting	-11784
▁Landwirte	-11785
▁ausgezeichneten	-11786
CS	-11787
gä	-11788
not	-11789
▁fee	-11790
▁east	-11791
▁letzt	-11792
▁newly	-11793
▁Küsten	-11794
▁hospit	-11795
ittees	-11796
▁Offen	-11797
▁Puert	-11798
OW	-11799
▁Nap	-11800
▁dans	-11801
▁ignor	-11802
▁eigent	-11803
▁kommun	-11804
▁Empfehlung	-11805
inos	-11806
▁kurze	-11807
holders	-11808
▁Master	-11809
▁weshalb	-11810
▁contrast	-11811
▁ausgeschlossen	-11812
iva	-11813
oni	-11814
▁hit	-11815
macht	-11816
water	-11817
▁Four	-11818
schirm	-11819
▁Elect	-11820
liefert	-11821
wendungen	-11822
▁Executive	-11823
▁contributions	-11824
▁grundlegenden	-11825
85	-11826
rd	-11827
achte	-11828
azine	-11829
holen	-11830
▁Urspr	-11831
handelt	-11832
lastung	-11833
▁beseit	-11834
▁commun	-11835
▁ruhigen	-11836
▁annehmen	-11837
▁messages	-11838
▁schreiben	-11839
ml	-11840
ti	-11841
▁cer	-11842
unicip	-11843
enturen	-11844
▁erheblich	-11845
▁naturally	-11846
äumt	-11847
stood	-11848
ucher	-11849
▁Prop	-11850
▁Sund	-11851
▁boat	-11852
▁doesn	-11853
▁owner	-11854
▁richten	-11855
▁spectac	-11856
▁verursacht	-11857
▁natürlichen	-11858
▁Angel	-11859
▁laufen	-11860
▁beraten	-11861
▁creative	-11862
▁handling	-11863
▁gratulieren	-11864
▁requirement	-11865
▁verschiedener	-11866
iday	-11867
▁Wil	-11868
ifies	-11869
▁gets	-11870
modell	-11871
▁Ladies	-11872
▁career	-11873
▁Punkten	-11874
▁supposed	-11875
▁amaz	-11876
▁präz	-11877
▁lobby	-11878
▁metal	-11879
▁beträcht	-11880
▁maintained	-11881
▁surroundings	-11882
▁getr	-11883
isierungs	-11884
▁vacation	-11885
▁mandate	-11886
▁identify	-11887
▁Kategorie	-11888
▁president	-11889
▁interessant	-11890
▁recommendation	-11891
▁EP	-11892
▁inf	-11893
cohol	-11894
▁Angst	-11895
▁Normen	-11896
▁breite	-11897
▁bekämpfen	-11898
▁präsentiert	-11899
9)	-11900
acion	-11901
freie	-11902
▁Bucht	-11903
▁Their	-11904
reichung	-11905
▁abgesch	-11906
▁mögliche	-11907
▁zentralen	-11908
▁resolutions	-11909
▁constructive	-11910
izer	-11911
▁Update	-11912
▁lovely	-11913
▁charges	-11914
▁controll	-11915
▁verlangt	-11916
▁preparation	-11917
6)	-11918
▁Pia	-11919
fined	-11920
▁List	-11921
steuer	-11922
▁Stahl	-11923
▁sorgt	-11924
▁Garantie	-11925
gesundheit	-11926
▁temporary	-11927
▁uneingesch	-11928
▁anschließen	-11929
▁durchführen	-11930
▁entscheidend	-11931
▁Berichterstat	-11932
ci	-11933
urd	-11934
▁Sat	-11935
▁looks	-11936
wirkung	-11937
▁Massen	-11938
▁abroad	-11939
▁gender	-11940
wachstum	-11941
▁customs	-11942
▁zufolge	-11943
▁performed	-11944
▁regulatory	-11945
▁Vorschlägen	-11946
▁grundlegende	-11947
▁enh	-11948
▁dich	-11949
▁alarm	-11950
onymous	-11951
▁issued	-11952
▁creates	-11953
▁Ausgangspunkt	-11954
▁AP	-11955
▁UNO	-11956
ziplin	-11957
▁Gentoo	-11958
▁prohib	-11959
▁Through	-11960
▁debates	-11961
▁fordere	-11962
▁operational	-11963
▁rapporteurs	-11964
care	-11965
▁abol	-11966
▁consc	-11967
▁dritte	-11968
standards	-11969
▁ungefähr	-11970
▁Geschmack	-11971
▁kontinuier	-11972
▁transportation	-11973
zne	-11974
päck	-11975
▁Cyprus	-11976
▁Viertel	-11977
▁neuesten	-11978
▁ausgewogen	-11979
Fl	-11980
Vers	-11981
▁Life	-11982
▁prove	-11983
angebot	-11984
▁bekomm	-11985
▁sexual	-11986
▁Standort	-11987
▁schnelle	-11988
▁leistungs	-11989
▁Ath	-11990
▁bud	-11991
loyed	-11992
▁WLAN	-11993
nischen	-11994
▁Papier	-11995
▁lautet	-11996
▁Training	-11997
▁vereinbar	-11998
▁Stabilitäts	-11999
▁SO	-12000
▁kommer	-12001
▁Steuern	-12002
▁Agricult	-12003
▁automatic	-12004
▁criticism	-12005
▁renovated	-12006
▁protecting	-12007
21	-12008
▁cry	-12009
berge	-12010
▁schne	-12011
▁Export	-12012
legungen	-12013
▁abandon	-12014
▁hardware	-12015
▁Festlegung	-12016
gut	-12017
▁Year	-12018
▁Regen	-12019
▁Sauna	-12020
▁Brasil	-12021
▁übernimmt	-12022
td	-12023
▁Verk	-12024
ruppen	-12025
ätigung	-12026
▁Access	-12027
▁Gestaltung	-12028
▁cab	-12029
▁Wild	-12030
▁Wolf	-12031
ighten	-12032
▁sauna	-12033
essions	-12034
▁faster	-12035
▁depends	-12036
▁phenomen	-12037
▁returned	-12038
▁zuständigen	-12039
▁Harmonisierung	-12040
-/	-12041
VI	-12042
eler	-12043
▁define	-12044
▁riesigen	-12045
▁verständ	-12046
▁aufgefordert	-12047
▁900	-12048
istern	-12049
rating	-12050
▁Lager	-12051
▁Maastr	-12052
▁Proced	-12053
▁Robert	-12054
arma	-12055
▁USD	-12056
▁Award	-12057
▁Polish	-12058
▁trifft	-12059
material	-12060
▁Ausgabe	-12061
▁Polizei	-12062
▁detaill	-12063
▁parents	-12064
▁erlauben	-12065
▁restrictions	-12066
▁Inf	-12067
▁Anton	-12068
▁faced	-12069
▁towns	-12070
▁Kontext	-12071
▁ehrgeiz	-12072
▁Erholung	-12073
▁heritage	-12074
▁auftreten	-12075
▁verstanden	-12076
iny	-12077
▁MS	-12078
▁Ski	-12079
erten	-12080
▁Thomas	-12081
▁aftern	-12082
▁Budapest	-12083
▁Japanese	-12084
▁decorated	-12085
organ	-12086
decken	-12087
▁advoc	-12088
▁zählt	-12089
▁Verring	-12090
▁aktuell	-12091
▁entwickelten	-12092
▁essen	-12093
▁joined	-12094
▁remote	-12095
▁serves	-12096
▁illustr	-12097
▁perfekt	-12098
▁precise	-12099
▁gewonnen	-12100
▁Hof	-12101
▁sin	-12102
▁Halb	-12103
▁Himm	-12104
▁Prin	-12105
▁Verd	-12106
▁album	-12107
▁worry	-12108
▁Geheim	-12109
▁pattern	-12110
▁quarter	-12111
▁früheren	-12112
▁Internets	-12113
▁properties	-12114
▁Überzeugung	-12115
▁zut	-12116
Produ	-12117
▁gold	-12118
▁load	-12119
▁Marina	-12120
▁Struct	-12121
ließt	-12122
rufen	-12123
▁trib	-12124
imedia	-12125
▁bezug	-12126
▁intensiv	-12127
tedly	-12128
▁wann	-12129
▁Feuer	-12130
▁Games	-12131
▁schwed	-12132
▁string	-12133
arkt	-12134
▁50%	-12135
aling	-12136
azier	-12137
▁starts	-12138
▁Bestellung	-12139
▁sehe	-12140
märkte	-12141
▁2007.	-12142
▁Armen	-12143
▁Hilfs	-12144
▁react	-12145
grenzen	-12146
▁buchen	-12147
▁involve	-12148
forschung	-12149
▁intensive	-12150
▁Fähigkeiten	-12151
ju	-12152
▁33	-12153
▁95	-12154
▁Audio	-12155
▁seeing	-12156
▁Tschech	-12157
▁Problems	-12158
▁reserves	-12159
▁conflicts	-12160
▁umzusetzen	-12161
▁Zentralbank	-12162
asche	-12163
onien	-12164
stanz	-12165
▁gene	-12166
attung	-12167
center	-12168
uliert	-12169
▁Zentr	-12170
▁accompan	-12171
▁Ausführungen	-12172
▁Schlafzimmer	-12173
täus	-12174
▁dark	-12175
▁irre	-12176
▁collective	-12177
TR	-12178
arl	-12179
cles	-12180
vant	-12181
ährung	-12182
▁Umfeld	-12183
▁Partners	-12184
▁somewhat	-12185
▁einfachen	-12186
institution	-12187
▁Ausführung	-12188
▁wettbewerbs	-12189
point	-12190
▁Prüf	-12191
▁deals	-12192
▁ermut	-12193
entions	-12194
▁Gegend	-12195
▁geboten	-12196
▁stylish	-12197
▁Übereinkommen	-12198
ypern	-12199
▁Büro	-12200
▁visa	-12201
▁demanding	-12202
▁techniques	-12203
zellen	-12204
▁Dynam	-12205
▁cloth	-12206
behörde	-12207
örderung	-12208
▁direkten	-12209
▁exciting	-12210
▁beabsicht	-12211
aled	-12212
aller	-12213
ivals	-12214
▁Mold	-12215
▁volunt	-12216
▁tourists	-12217
▁traditions	-12218
▁organisiert	-12219
▁Gleichgewicht	-12220
▁characteristics	-12221
▁Box	-12222
gänge	-12223
table	-12224
▁Blut	-12225
▁drop	-12226
▁dates	-12227
▁Subsid	-12228
▁sodass	-12229
▁nachhaltigen	-12230
▁vollständige	-12231
ror	-12232
▁Fü	-12233
wald	-12234
lared	-12235
▁Infl	-12236
▁Inner	-12237
Adresse	-12238
▁Satell	-12239
▁musste	-12240
schiedet	-12241
▁organized	-12242
gie	-12243
▁Eis	-12244
▁Max	-12245
▁ethnic	-12246
▁suites	-12247
▁Indones	-12248
▁continent	-12249
▁Einbeziehung	-12250
AF	-12251
lieb	-12252
▁Food	-12253
▁geboren	-12254
▁Anfragen	-12255
▁ultimately	-12256
▁в	-12257
▁GU	-12258
rett	-12259
iring	-12260
orien	-12261
▁Zwei	-12262
▁heat	-12263
▁recip	-12264
lässlich	-12265
▁gardens	-12266
▁Gründung	-12267
▁angesehen	-12268
▁Verfahrens	-12269
▁einzigartige	-12270
▁Straß	-12271
erkennen	-12272
▁Geschäft	-12273
▁interessante	-12274
▁verabschiedet	-12275
▁außerordentlich	-12276
äll	-12277
aine	-12278
▁Kas	-12279
▁PRO	-12280
orama	-12281
mitten	-12282
▁Videos	-12283
▁achten	-12284
▁spoken	-12285
▁Abschnitt	-12286
▁Zuständigkeit	-12287
▁sac	-12288
gemäß	-12289
▁Vice	-12290
▁Block	-12291
▁bottom	-12292
▁answers	-12293
▁Deswegen	-12294
▁protocol	-12295
▁subsidies	-12296
▁Protection	-12297
95	-12298
pen	-12299
ateful	-12300
▁destru	-12301
▁enthus	-12302
▁legend	-12303
▁letzter	-12304
▁regularly	-12305
anen	-12306
▁raw	-12307
ergeb	-12308
▁Empf	-12309
▁Aktien	-12310
▁crimes	-12311
▁stimmt	-12312
▁Europol	-12313
stud	-12314
▁vous	-12315
▁films	-12316
▁pieces	-12317
▁Planung	-12318
▁divided	-12319
▁frequently	-12320
▁multinational	-12321
werb	-12322
ößen	-12323
▁Ware	-12324
▁Word	-12325
▁Optim	-12326
▁Schatten	-12327
▁channels	-12328
▁Projekten	-12329
▁parlament	-12330
▁producing	-12331
uese	-12332
▁KMU	-12333
igend	-12334
weite	-12335
▁Arme	-12336
rovers	-12337
▁2007,	-12338
▁Regime	-12339
▁behavi	-12340
▁gewissen	-12341
▁hundreds	-12342
▁bilateral	-12343
▁displayed	-12344
▁Washington	-12345
▁erreichbar	-12346
ulf	-12347
▁Bö	-12348
ipel	-12349
züge	-12350
▁cash	-12351
▁Funds	-12352
▁Schuld	-12353
▁erwähn	-12354
▁freiwill	-12355
▁Prinzipien	-12356
▁beeindruck	-12357
izza	-12358
life	-12359
uers	-12360
führte	-12361
related	-12362
▁driver	-12363
▁entsteht	-12364
▁verleihen	-12365
▁2-	-12366
▁DE	-12367
erin	-12368
▁Quark	-12369
▁ought	-12370
▁proof	-12371
▁Mexico	-12372
▁catalog	-12373
▁Kilometer	-12374
▁preis	-12375
▁Sorgen	-12376
gestellten	-12377
▁produziert	-12378
▁connections	-12379
ML	-12380
Room	-12381
▁Dal	-12382
▁nine	-12383
iftung	-12384
▁einig	-12385
▁reported	-12386
▁Alexander	-12387
uite	-12388
reffen	-12389
▁topic	-12390
▁unfor	-12391
▁entrance	-12392
kreis	-12393
▁erör	-12394
▁Bildungs	-12395
▁Automobil	-12396
▁abgestimmt	-12397
▁Drittländern	-12398
Spe	-12399
▁Liter	-12400
▁coher	-12401
▁signs	-12402
▁kurzen	-12403
▁Buchung	-12404
▁drawing	-12405
▁vorlegen	-12406
▁notwendige	-12407
gor	-12408
▁OR	-12409
udes	-12410
▁Luf	-12411
▁Holid	-12412
▁worse	-12413
ältigen	-12414
▁artist	-12415
▁classic	-12416
▁Vermögen	-12417
▁terrorist	-12418
arr	-12419
fuhr	-12420
läut	-12421
oden	-12422
liers	-12423
▁zugunsten	-12424
▁ausgesetzt	-12425
▁verringern	-12426
▁gelöst	-12427
▁mostly	-12428
▁geprüft	-12429
▁nunmehr	-12430
▁witness	-12431
▁Einwohner	-12432
▁entschlossen	-12433
▁Kommunikations	-12434
schm	-12435
ulpt	-12436
▁Viet	-12437
▁Prague	-12438
▁castle	-12439
▁lebens	-12440
ibliothek	-12441
▁Monetary	-12442
▁expansion	-12443
▁personnel	-12444
ibar	-12445
osis	-12446
▁avec	-12447
minute	-12448
▁Polit	-12449
▁Semin	-12450
▁stars	-12451
▁lounge	-12452
▁Gewicht	-12453
▁follows	-12454
▁bezahlen	-12455
▁corresponding	-12456
deb	-12457
icer	-12458
orca	-12459
▁hängt	-12460
▁noted	-12461
▁Author	-12462
▁soweit	-12463
▁statistics	-12464
▁Investitions	-12465
▁ball	-12466
▁Vorbe	-12467
▁newsp	-12468
entwurf	-12469
lichung	-12470
▁heating	-12471
ifizieren	-12472
▁derartige	-12473
▁Verringerung	-12474
▁refr	-12475
diction	-12476
▁Wesent	-12477
▁appoint	-12478
▁careful	-12479
▁showing	-12480
▁Arbeitsplatz	-12481
▁ausgezeichnet	-12482
arat	-12483
cean	-12484
▁Kat	-12485
▁king	-12486
▁unent	-12487
mäßigen	-12488
▁Kommun	-12489
▁arrive	-12490
▁kostet	-12491
▁Individ	-12492
▁minister	-12493
▁verehrte	-12494
▁maintaining	-12495
kohol	-12496
▁Vict	-12497
▁Tarif	-12498
▁welchem	-12499
▁Kohäsion	-12500
▁ausgestatte	-12501
▁inhabitants	-12502
▁beglückwünschen	-12503
iera	-12504
▁Mem	-12505
einen	-12506
▁Hohen	-12507
▁Kräfte	-12508
▁Mangel	-12509
▁bemühen	-12510
▁explore	-12511
▁schafft	-12512
▁Question	-12513
▁Är	-12514
schäd	-12515
national	-12516
▁focused	-12517
▁speaker	-12518
▁indicated	-12519
teln	-12520
▁NGO	-12521
usted	-12522
▁Fair	-12523
minuten	-12524
▁Dusche	-12525
▁Einheit	-12526
▁Urheber	-12527
▁Rumänien	-12528
▁Beziehung	-12529
▁Ib	-12530
zent	-12531
▁Klar	-12532
▁Rent	-12533
mäßige	-12534
tendlich	-12535
▁erinnert	-12536
▁afternoon	-12537
oli	-12538
▁Temp	-12539
▁Brand	-12540
▁cycle	-12541
▁Ersatz	-12542
▁confer	-12543
▁courage	-12544
▁library	-12545
▁Websites	-12546
▁accident	-12547
▁depending	-12548
▁extraordin	-12549
▁Ausstellung	-12550
▁Luc	-12551
▁awa	-12552
nitten	-12553
ughter	-12554
▁Krimin	-12555
▁Ziffer	-12556
▁Fleisch	-12557
▁Congress	-12558
▁involves	-12559
▁magnific	-12560
▁künftigen	-12561
▁pollution	-12562
43	-12563
▁Nic	-12564
ación	-12565
▁1970	-12566
▁trop	-12567
▁Franz	-12568
▁label	-12569
▁beschränkt	-12570
aun	-12571
cons	-12572
▁münd	-12573
▁push	-12574
▁wines	-12575
▁mother	-12576
▁wollten	-12577
▁Faktoren	-12578
▁conducted	-12579
▁emergency	-12580
▁geltenden	-12581
▁bestätigen	-12582
▁Bemerkungen	-12583
BS	-12584
It	-12585
hone	-12586
wege	-12587
▁Ill	-12588
▁geä	-12589
▁Trag	-12590
asions	-12591
scheidet	-12592
▁flights	-12593
gemeinschaft	-12594
isses	-12595
▁Bars	-12596
▁iron	-12597
▁Sonne	-12598
▁dream	-12599
▁Redner	-12600
maschine	-12601
▁Procedure	-12602
▁locations	-12603
Ad	-12604
▁Ten	-12605
günst	-12606
▁wünsch	-12607
▁Whether	-12608
▁bestimmen	-12609
▁kurzfrist	-12610
▁educational	-12611
▁–,	-12612
bach	-12613
▁Nos	-12614
▁Pact	-12615
etzten	-12616
vertre	-12617
▁Korrup	-12618
▁father	-12619
▁Provinz	-12620
▁holding	-12621
▁hervorheben	-12622
oot	-12623
▁180	-12624
▁Kamera	-12625
▁verwand	-12626
schriften	-12627
würdigkeit	-12628
▁aufnehmen	-12629
▁unmöglich	-12630
▁individuell	-12631
EE	-12632
▁rub	-12633
usehen	-12634
▁invite	-12635
▁planet	-12636
▁plenty	-12637
▁valley	-12638
▁Werbung	-12639
▁Framework	-12640
▁uncertain	-12641
▁verbinden	-12642
▁verhindert	-12643
▁angemessene	-12644
▁declaration	-12645
▁jetz	-12646
passen	-12647
▁Führer	-12648
zeichnis	-12649
▁prosper	-12650
▁investors	-12651
▁Freiheiten	-12652
▁understood	-12653
▁Tatsächlich	-12654
▁parliaments	-12655
▁sen	-12656
klass	-12657
geräte	-12658
▁interv	-12659
▁visited	-12660
▁Geschäfte	-12661
▁facilitate	-12662
iox	-12663
▁Network	-12664
▁grateful	-12665
▁slightly	-12666
▁Arbeitsplätzen	-12667
pap	-12668
▁termin	-12669
▁updated	-12670
▁verbind	-12671
▁Partnern	-12672
▁passiert	-12673
▁inflation	-12674
на	-12675
ete	-12676
▁sah	-12677
▁ven	-12678
otive	-12679
▁Dipl	-12680
▁prest	-12681
▁Spazier	-12682
beauftrag	-12683
▁Subsidiar	-12684
▁antw	-12685
▁didn	-12686
▁seat	-12687
▁kamen	-12688
ography	-12689
▁Ungarn	-12690
▁kontakt	-12691
▁protest	-12692
▁Anbieter	-12693
▁hinzufügen	-12694
▁Vereinbarungen	-12695
%,	-12696
.-	-12697
cor	-12698
▁ER	-12699
eing	-12700
athol	-12701
ifest	-12702
▁Road	-12703
▁gone	-12704
▁Anmer	-12705
▁input	-12706
▁widely	-12707
▁compatible	-12708
▁Ext	-12709
▁Jede	-12710
ikaner	-12711
▁Format	-12712
▁battle	-12713
▁ticket	-12714
▁Camping	-12715
▁Vorgehen	-12716
▁facility	-12717
▁ausgeführt	-12718
▁verbringen	-12719
▁staatlichen	-12720
▁documentation	-12721
▁AD	-12722
▁fab	-12723
pping	-12724
▁Dass	-12725
▁stopp	-12726
▁ferner	-12727
▁geräum	-12728
▁Edition	-12729
▁welfare	-12730
▁interior	-12731
▁relaxation	-12732
▁Komponenten	-12733
▁trafficking	-12734
▁Legisl	-12735
▁Sollte	-12736
▁stored	-12737
produkte	-12738
▁minority	-12739
▁presents	-12740
▁electricity	-12741
▁38	-12742
rates	-12743
unning	-12744
arische	-12745
klusive	-12746
▁Konzer	-12747
▁Zypern	-12748
▁windows	-12749
icherungs	-12750
kontrolle	-12751
▁Beiträge	-12752
▁adopting	-12753
▁Maastricht	-12754
▁immigrants	-12755
▁erleichtern	-12756
Art	-12757
herr	-12758
wing	-12759
▁Taiwan	-12760
▁privat	-12761
▁Haftung	-12762
▁Gemeinde	-12763
▁Equ	-12764
level	-12765
werks	-12766
▁Sony	-12767
▁drug	-12768
▁ster	-12769
▁tail	-12770
▁Gener	-12771
Service	-12772
▁Abhäng	-12773
▁Symbol	-12774
▁kämpfen	-12775
▁Rezeption	-12776
▁Portuguese	-12777
▁sorgfältig	-12778
TC	-12779
▁7,	-12780
▁UR	-12781
▁legt	-12782
▁Brenn	-12783
ultural	-12784
▁Balkan	-12785
▁überras	-12786
▁Besonders	-12787
▁Deutschen	-12788
▁behaviour	-12789
▁migration	-12790
▁committees	-12791
▁beschäftigen	-12792
NS	-12793
üler	-12794
▁Betr	-12795
▁roads	-12796
▁vorange	-12797
▁emerging	-12798
▁transatlant	-12799
▁SAP	-12800
Christ	-12801
▁Konsens	-12802
▁eingere	-12803
▁northern	-12804
▁übrigens	-12805
▁Gespräche	-12806
▁resistance	-12807
▁accompanied	-12808
örd	-12809
▁1992	-12810
▁Orte	-12811
▁dign	-12812
▁fuer	-12813
häuser	-12814
▁smooth	-12815
▁visible	-12816
▁controlled	-12817
▁Außenpolitik	-12818
▁Verbindungen	-12819
Man	-12820
ede	-12821
chst	-12822
▁seas	-12823
demark	-12824
▁Canon	-12825
▁Water	-12826
▁tatsäch	-12827
▁Führungs	-12828
▁definiert	-12829
▁Copenhagen	-12830
nor	-12831
itra	-12832
liste	-12833
▁toba	-12834
useums	-12835
uminium	-12836
▁cutting	-12837
▁solange	-12838
▁delighted	-12839
▁Insbesondere	-12840
▁({{	-12841
▁Moz	-12842
▁View	-12843
▁cosy	-12844
▁Niger	-12845
▁breit	-12846
▁proven	-12847
▁worksh	-12848
▁heutige	-12849
▁Speicher	-12850
▁finished	-12851
ätigkeiten	-12852
▁gespeichert	-12853
▁collaboration	-12854
Con	-12855
▁55	-12856
bart	-12857
▁Ltd	-12858
▁Shop	-12859
▁Wird	-12860
▁Kreuz	-12861
ameters	-12862
▁derart	-12863
▁nahezu	-12864
▁visual	-12865
▁Description	-12866
▁ice	-12867
orter	-12868
iences	-12869
▁virtual	-12870
▁Verbreitung	-12871
:3	-12872
ulen	-12873
▁carbon	-12874
▁Wünsche	-12875
▁Argument	-12876
▁respected	-12877
CHT	-12878
▁IB	-12879
▁BIP	-12880
▁Naz	-12881
▁neun	-12882
vertrag	-12883
▁discre	-12884
▁fitness	-12885
▁verdient	-12886
▁individuelle	-12887
▁HD	-12888
banken	-12889
schluß	-12890
▁Aktual	-12891
▁Verbot	-12892
▁arrived	-12893
▁entdeck	-12894
▁jegliche	-12895
▁Schweizer	-12896
▁competent	-12897
▁österreich	-12898
▁tar	-12899
▁SMEs	-12900
▁Adobe	-12901
▁beruht	-12902
▁fertig	-12903
▁mitten	-12904
▁beliebt	-12905
▁taxation	-12906
▁Amendments	-12907
▁Gegenstand	-12908
▁supplement	-12909
ubl	-12910
▁Kra	-12911
▁Mas	-12912
▁arm	-12913
iforn	-12914
▁Asien	-12915
▁Friday	-12916
▁einheitlichen	-12917
▁6,	-12918
holm	-12919
iefer	-12920
yside	-12921
▁oral	-12922
ausend	-12923
▁Freit	-12924
▁ongoing	-12925
▁Autobahn	-12926
▁maritime	-12927
▁suppliers	-12928
▁categories	-12929
▁spezifischen	-12930
22	-12931
UL	-12932
Lin	-12933
▁MB	-12934
▁Jer	-12935
▁plen	-12936
▁Werke	-12937
▁Preisen	-12938
▁chinesischen	-12939
▁Gesellschaften	-12940
bi	-12941
▁Hen	-12942
▁milk	-12943
▁Putin	-12944
▁Serie	-12945
hörigen	-12946
ausschuß	-12947
▁citizen	-12948
▁islands	-12949
▁contacts	-12950
▁serviert	-12951
▁Webseiten	-12952
▁Vorschlags	-12953
100	-12954
amo	-12955
jan	-12956
ulin	-12957
▁fem	-12958
icans	-12959
▁sugar	-12960
▁streng	-12961
▁Freunden	-12962
▁Salzburg	-12963
▁explicit	-12964
▁Kompetenz	-12965
▁britische	-12966
▁minorities	-12967
▁constitution	-12968
ruh	-12969
▁department	-12970
▁reduzieren	-12971
aux	-12972
usse	-12973
weile	-12974
▁Balkon	-12975
▁echten	-12976
▁settings	-12977
▁gezwungen	-12978
▁34	-12979
▁WC	-12980
sieht	-12981
▁Anre	-12982
▁flag	-12983
chnung	-12984
▁facts	-12985
▁firms	-12986
▁Zielen	-12987
▁Perhaps	-12988
▁Verpack	-12989
▁Northern	-12990
▁letztlich	-12991
65	-12992
Vert	-12993
gelöst	-12994
undert	-12995
▁Earth	-12996
▁Treat	-12997
▁Bedien	-12998
unications	-12999
▁Mobilität	-13000
uben	-13001
▁inj	-13002
▁symp	-13003
langen	-13004
ochter	-13005
▁Chair	-13006
▁Genau	-13007
▁Slovak	-13008
▁drivers	-13009
▁profile	-13010
▁Sektoren	-13011
▁ordnungs	-13012
▁sensible	-13013
ui	-13014
iki	-13015
▁coal	-13016
▁Legal	-13017
▁mitge	-13018
▁theme	-13019
▁Hostel	-13020
▁Schrift	-13021
▁Städten	-13022
▁alcohol	-13023
teilungen	-13024
▁identified	-13025
▁installieren	-13026
IDS	-13027
rown	-13028
▁rul	-13029
▁sad	-13030
agers	-13031
▁Bord	-13032
▁Page	-13033
▁mittler	-13034
▁angewand	-13035
▁vorstellen	-13036
но	-13037
▁Indian	-13038
▁duties	-13039
▁bestehende	-13040
▁verurteilt	-13041
▁demonstrated	-13042
llo	-13043
aching	-13044
gerufen	-13045
▁Donner	-13046
▁Vietnam	-13047
▁bilater	-13048
▁verschw	-13049
▁horizont	-13050
▁visiting	-13051
▁Besorgnis	-13052
idet	-13053
▁Ech	-13054
▁nachzu	-13055
▁tobacco	-13056
▁containing	-13057
▁entscheidende	-13058
ups	-13059
▁usual	-13060
▁Verlauf	-13061
▁replaced	-13062
beziehungen	-13063
▁courts	-13064
▁Gericht	-13065
▁addresses	-13066
▁commission	-13067
▁westlichen	-13068
▁Boot	-13069
▁Mode	-13070
▁Plug	-13071
▁lots	-13072
iessen	-13073
wertet	-13074
▁channel	-13075
▁behalten	-13076
▁possibly	-13077
▁destruction	-13078
▁{	-13079
▁Reis	-13080
zneimit	-13081
▁Single	-13082
▁discip	-13083
▁Konstru	-13084
▁declared	-13085
▁Structural	-13086
▁angegebenen	-13087
techn	-13088
▁nights	-13089
▁rational	-13090
▁stronger	-13091
▁Palästinens	-13092
▁unverzüglich	-13093
▁globalisation	-13094
▁individuellen	-13095
▁wunderschönen	-13096
rock	-13097
▁Who	-13098
▁Yes	-13099
▁flu	-13100
▁Beam	-13101
▁Ferr	-13102
▁Clear	-13103
▁Automat	-13104
▁Chancen	-13105
▁overcome	-13106
▁Bedrohung	-13107
▁passenger	-13108
▁rechtlichen	-13109
▁grundsätzlich	-13110
agg	-13111
▁stil	-13112
▁2006,	-13113
betrieb	-13114
▁scheme	-13115
▁autonom	-13116
▁consent	-13117
▁Gesetzes	-13118
▁Optionen	-13119
▁copyright	-13120
▁era	-13121
▁2010,	-13122
▁vorzu	-13123
lehnung	-13124
▁assume	-13125
bildungs	-13126
▁Marktes	-13127
▁sending	-13128
▁resolved	-13129
▁zurückzu	-13130
▁appointed	-13131
▁gestaltet	-13132
▁Kontrollen	-13133
▁Fa	-13134
steigen	-13135
▁Israeli	-13136
▁Gerichte	-13137
▁Philosoph	-13138
▁berechtigt	-13139
▁settlement	-13140
▁65	-13141
▁Sav	-13142
▁Among	-13143
▁Milch	-13144
▁Plenum	-13145
▁Kapitel	-13146
▁restruct	-13147
▁bestimmter	-13148
▁Satz	-13149
▁Vern	-13150
systeme	-13151
▁Puerto	-13152
▁Konsult	-13153
▁gewährt	-13154
▁tickets	-13155
▁Drittens	-13156
▁legitimate	-13157
▁subsidiarity	-13158
NA	-13159
ained	-13160
▁Educ	-13161
urlaub	-13162
▁Medik	-13163
▁popul	-13164
dienste	-13165
▁Gepäck	-13166
▁adults	-13167
▁proved	-13168
▁suspend	-13169
▁demonstrate	-13170
▁erfolgreiche	-13171
▁traditionelle	-13172
mens	-13173
▁forg	-13174
▁hostel	-13175
schaffung	-13176
▁Kongress	-13177
▁einfacher	-13178
▁corruption	-13179
▁eingereicht	-13180
▁organisieren	-13181
eta	-13182
igu	-13183
▁Li	-13184
kter	-13185
▁VAT	-13186
▁Wei	-13187
athem	-13188
ammeln	-13189
▁woman	-13190
ivalent	-13191
▁verbesser	-13192
▁configuration	-13193
üne	-13194
▁Zür	-13195
emble	-13196
ignet	-13197
▁labe	-13198
▁flood	-13199
▁rapidly	-13200
▁distingu	-13201
▁Bemerkung	-13202
▁centuries	-13203
▁empfangen	-13204
▁countryside	-13205
▁vorhandenen	-13206
ées	-13207
▁1993	-13208
▁Email	-13209
▁James	-13210
▁fourth	-13211
▁Hungary	-13212
▁theoret	-13213
▁division	-13214
▁concluded	-13215
▁gegebenen	-13216
▁manufacturer	-13217
OP	-13218
▁FA	-13219
örter	-13220
▁forum	-13221
▁Soviet	-13222
▁partial	-13223
▁beobachten	-13224
▁GB	-13225
ammt	-13226
ardo	-13227
lichten	-13228
▁Michel	-13229
▁shares	-13230
▁tackle	-13231
▁recorded	-13232
▁occasions	-13233
▁russischen	-13234
informationen	-13235
ín	-13236
comp	-13237
iese	-13238
▁Int	-13239
▁tea	-13240
▁Spaß	-13241
derung	-13242
ounter	-13243
▁jener	-13244
▁ruhig	-13245
▁Belgium	-13246
▁imposed	-13247
Strategie	-13248
▁Werkzeug	-13249
▁appeared	-13250
▁luxurious	-13251
äg	-13252
▁10%	-13253
cepts	-13254
▁frame	-13255
▁israel	-13256
▁bekräft	-13257
▁höheren	-13258
▁director	-13259
▁definitely	-13260
▁conditioning	-13261
▁Ka	-13262
▁Ku	-13263
▁Situ	-13264
▁nutz	-13265
wählen	-13266
▁Baltic	-13267
▁bright	-13268
▁Interess	-13269
▁aussprechen	-13270
▁considering	-13271
▁constitutional	-13272
fit	-13273
liegt	-13274
▁Neue	-13275
▁Alles	-13276
▁Thurs	-13277
▁Stimmen	-13278
▁actively	-13279
▁Following	-13280
▁beschleun	-13281
rupt	-13282
tein	-13283
rical	-13284
teils	-13285
▁Gaza	-13286
▁Child	-13287
▁assure	-13288
▁unfair	-13289
▁niedrig	-13290
▁certific	-13291
▁Newsletter	-13292
▁erfolgreichen	-13293
▁Az	-13294
acks	-13295
anke	-13296
▁Bug	-13297
▁Ram	-13298
▁Roll	-13299
▁Malta	-13300
▁Zwecke	-13301
▁verkaufen	-13302
Med	-13303
dro	-13304
▁surf	-13305
schefs	-13306
immungs	-13307
▁Browser	-13308
▁enjoyed	-13309
▁erzeugt	-13310
▁artistic	-13311
▁decisive	-13312
▁vermitteln	-13313
anw	-13314
ingly	-13315
freien	-13316
werken	-13317
▁wechs	-13318
spartner	-13319
▁Sollten	-13320
▁proposing	-13321
▁AKP	-13322
▁Women	-13323
▁jenen	-13324
▁narrow	-13325
▁gallery	-13326
▁großzüg	-13327
▁eventually	-13328
orry	-13329
gänger	-13330
regeln	-13331
▁topics	-13332
etheless	-13333
▁Schulen	-13334
▁attract	-13335
▁Identität	-13336
▁Krankheit	-13337
▁verstärken	-13338
▁credibility	-13339
▁magnificent	-13340
▁effectiveness	-13341
gess	-13342
▁miles	-13343
▁Abkommens	-13344
▁palästinens	-13345
▁amerikanische	-13346
IX	-13347
▁22.	-13348
▁Ker	-13349
durch	-13350
▁Auge	-13351
▁Oder	-13352
▁Sche	-13353
▁komme	-13354
▁teams	-13355
▁erläut	-13356
kommunik	-13357
▁Respekt	-13358
▁Energien	-13359
▁description	-13360
▁Var	-13361
▁diagn	-13362
▁Betrag	-13363
▁Persön	-13364
▁Within	-13365
▁manager	-13366
▁periods	-13367
▁Anschluss	-13368
WF	-13369
ás	-13370
oche	-13371
▁Sar	-13372
etzte	-13373
▁liked	-13374
▁desired	-13375
▁enhance	-13376
▁plenary	-13377
▁gespielt	-13378
▁printing	-13379
▁correctly	-13380
▁auseinander	-13381
▁interpretation	-13382
▁Rechtsgrundlage	-13383
dorf	-13384
hrten	-13385
▁Wart	-13386
▁domain	-13387
▁Männern	-13388
▁deposit	-13389
hältnisse	-13390
▁Opposition	-13391
▁Erzeugnisse	-13392
▁functioning	-13393
}})	-13394
▁Vel	-13395
▁Zusch	-13396
▁fehlt	-13397
▁semin	-13398
▁Charles	-13399
▁awarded	-13400
bekämpfung	-13401
▁providers	-13402
▁erhebliche	-13403
▁spectacular	-13404
Cl	-13405
▁BMW	-13406
zentren	-13407
▁gekenn	-13408
▁murder	-13409
▁Hungarian	-13410
▁encouraging	-13411
▁transactions	-13412
ROM	-13413
ässig	-13414
▁Bere	-13415
▁jung	-13416
alerie	-13417
waffen	-13418
▁Alpen	-13419
▁Exchange	-13420
▁Untersuchungen	-13421
nex	-13422
estr	-13423
▁HTML	-13424
▁Zert	-13425
▁arab	-13426
ativer	-13427
hängen	-13428
▁ensures	-13429
zut	-13430
endar	-13431
▁Tsch	-13432
▁partly	-13433
▁twenty	-13434
athedral	-13435
▁hundred	-13436
▁satisfied	-13437
▁Bereitstellung	-13438
▁verantwortungs	-13439
pet	-13440
rog	-13441
town	-13442
▁sud	-13443
fragt	-13444
▁Blue	-13445
▁roof	-13446
General	-13447
▁judicial	-13448
dh	-13449
Des	-13450
udi	-13451
▁AM	-13452
▁EL	-13453
zonen	-13454
Intern	-13455
▁formed	-13456
▁Balkans	-13457
▁begrüßt	-13458
▁Gefahren	-13459
▁distributed	-13460
Wir	-13461
mir	-13462
----	-13463
▁700	-13464
▁AND	-13465
while	-13466
▁died	-13467
▁vieles	-13468
▁elector	-13469
▁western	-13470
▁carrying	-13471
▁Politiken	-13472
▁Zusätzlich	-13473
▁functional	-13474
▁integriert	-13475
▁Vorstellung	-13476
▁Mitarbeitern	-13477
68	-13478
endo	-13479
ockt	-13480
ville	-13481
▁Charta	-13482
▁Kaffee	-13483
▁theory	-13484
▁langsam	-13485
▁verwirk	-13486
pg	-13487
▁IV	-13488
irls	-13489
uchs	-13490
ieden	-13491
stellungs	-13492
▁authentic	-13493
▁elsewhere	-13494
▁wiederholt	-13495
▁ursprünglich	-13496
CP	-13497
xy	-13498
icing	-13499
▁Terra	-13500
▁Works	-13501
▁Ausmaß	-13502
▁Client	-13503
▁Schluß	-13504
▁Holiday	-13505
lications	-13506
▁stehenden	-13507
▁einzigartigen	-13508
▁strategischen	-13509
IK	-13510
UNG	-13511
▁Gi	-13512
mung	-13513
▁thr	-13514
Unter	-13515
bleme	-13516
▁Kais	-13517
▁army	-13518
▁2000,	-13519
▁assets	-13520
▁Assembly	-13521
▁Gerechtigkeit	-13522
vi	-13523
oub	-13524
▁Pot	-13525
▁Begr	-13526
▁roll	-13527
▁vari	-13528
arters	-13529
menade	-13530
▁killed	-13531
▁liefert	-13532
▁replace	-13533
▁foundation	-13534
▁Genehmigung	-13535
ye	-13536
’.	-13537
▁panoram	-13538
▁weekend	-13539
effizienz	-13540
technolog	-13541
▁Lieferung	-13542
▁·	-13543
▁brut	-13544
▁Kabel	-13545
▁Thirdly	-13546
▁verkauft	-13547
▁Kopenhagen	-13548
Br	-13549
rep	-13550
obel	-13551
▁31.	-13552
▁ped	-13553
prene	-13554
ruppe	-13555
▁eröff	-13556
▁Detail	-13557
▁routes	-13558
▁Verlust	-13559
▁eastern	-13560
▁schlägt	-13561
▁intelligent	-13562
site	-13563
stes	-13564
ôtel	-13565
▁Cho	-13566
▁Hat	-13567
▁Mrd	-13568
uster	-13569
▁Defiz	-13570
marquis	-13571
▁compos	-13572
▁bislang	-13573
▁Sozialdem	-13574
-4	-13575
▁Hamas	-13576
▁honest	-13577
▁Finland	-13578
▁Wohnung	-13579
▁uniform	-13580
▁Eigentum	-13581
▁everyday	-13582
▁villages	-13583
▁inklusive	-13584
▁beigetragen	-13585
aya	-13586
Star	-13587
▁umge	-13588
▁Stras	-13589
▁Mobile	-13590
▁dürfte	-13591
▁impose	-13592
▁insist	-13593
▁preced	-13594
▁proposes	-13595
▁rechtzeit	-13596
▁verbindet	-13597
He	-13598
▁Lok	-13599
gener	-13600
annter	-13601
▁Apple	-13602
▁Satur	-13603
bereiten	-13604
▁housing	-13605
▁Wohlstand	-13606
▁betreffend	-13607
übt	-13608
▁afr	-13609
ernel	-13610
wirkt	-13611
▁amen	-13612
▁susp	-13613
fangen	-13614
▁Besides	-13615
▁Fernseh	-13616
▁shipping	-13617
▁sozialer	-13618
▁verboten	-13619
behandlung	-13620
▁Potenzial	-13621
▁französische	-13622
Mod	-13623
hips	-13624
▁gehe	-13625
iegelt	-13626
leiter	-13627
▁Traum	-13628
gebiete	-13629
programme	-13630
▁zuständig	-13631
iets	-13632
▁nahm	-13633
ündete	-13634
▁stren	-13635
▁Kriegs	-13636
▁äußern	-13637
▁Kroatien	-13638
▁Rechnungshof	-13639
erts	-13640
▁sit	-13641
ofern	-13642
ancing	-13643
▁Given	-13644
▁Güter	-13645
ränkung	-13646
ziellen	-13647
▁pursue	-13648
iza	-13649
anne	-13650
ührt	-13651
▁Stutt	-13652
▁index	-13653
ügigkeit	-13654
▁Without	-13655
▁lessons	-13656
▁Kollegin	-13657
▁supplier	-13658
▁Einkommen	-13659
▁component	-13660
ademy	-13661
▁carr	-13662
▁Metro	-13663
▁Porto	-13664
▁della	-13665
▁Valley	-13666
▁erstre	-13667
▁personen	-13668
▁supplies	-13669
▁Übersetz	-13670
▁difficulty	-13671
▁wiederholen	-13672
▁Jung	-13673
▁Pfer	-13674
▁vary	-13675
▁Beweg	-13676
▁Plane	-13677
▁Reduz	-13678
▁Sudan	-13679
economic	-13680
▁Consult	-13681
▁Übergangs	-13682
orse	-13683
▁USS	-13684
parte	-13685
▁Frie	-13686
▁Game	-13687
▁desk	-13688
ökonom	-13689
▁Anlass	-13690
▁drinks	-13691
▁geziel	-13692
lösungen	-13693
▁Quellen	-13694
▁substance	-13695
LAF	-13696
inks	-13697
▁Laut	-13698
kultur	-13699
▁Schon	-13700
▁verwe	-13701
▁breach	-13702
▁Konkurr	-13703
▁anwesend	-13704
▁Korruption	-13705
▁Verletzung	-13706
▁professionals	-13707
▁EZ	-13708
▁Rio	-13709
ziele	-13710
▁Rena	-13711
▁2006.	-13712
▁Staff	-13713
▁japan	-13714
▁Tennis	-13715
▁luxuri	-13716
▁oblige	-13717
▁emotion	-13718
ordnungen	-13719
▁applying	-13720
▁regarded	-13721
▁ansprechen	-13722
▁complement	-13723
▁nevertheless	-13724
dauer	-13725
▁Made	-13726
▁Project	-13727
▁stammen	-13728
▁Übrigen	-13729
urteilung	-13730
▁disabled	-13731
▁Schönheit	-13732
:5	-13733
idad	-13734
orie	-13735
▁McC	-13736
▁fan	-13737
igert	-13738
▁abuse	-13739
▁Umsatz	-13740
▁handle	-13741
▁Mission	-13742
▁thousand	-13743
▁unvergess	-13744
▁Erstellung	-13745
▁confirmation	-13746
otic	-13747
▁deleg	-13748
▁Sterne	-13749
▁Vorder	-13750
▁finish	-13751
▁iPhone	-13752
▁herrscht	-13753
▁revision	-13754
▁einzigart	-13755
▁mittleren	-13756
▁vulnerable	-13757
▁elektronischen	-13758
eto	-13759
utet	-13760
aders	-13761
kehrt	-13762
night	-13763
räumen	-13764
▁Attra	-13765
▁euros	-13766
▁Stoffe	-13767
▁Freitag	-13768
▁Donnerstag	-13769
▁Rechtsstaat	-13770
▁Cup	-13771
▁Job	-13772
Rooms	-13773
▁Vene	-13774
▁Lobby	-13775
▁poten	-13776
▁Abfall	-13777
▁bedauer	-13778
▁inclusion	-13779
▁Glaubwürdigkeit	-13780
ulich	-13781
▁Desk	-13782
▁Look	-13783
zenten	-13784
▁Darum	-13785
▁Schle	-13786
▁deter	-13787
▁defect	-13788
▁rental	-13789
▁geraten	-13790
glichkeit	-13791
▁Thursday	-13792
▁erwähnen	-13793
▁trademark	-13794
▁Fundamental	-13795
160	-13796
▁(*	-13797
usch	-13798
▁Vize	-13799
gehens	-13800
strafe	-13801
ommerce	-13802
ausschau	-13803
▁Versand	-13804
▁banking	-13805
BC	-13806
oul	-13807
▁Äg	-13808
tech	-13809
folgung	-13810
▁klaren	-13811
▁module	-13812
ographic	-13813
▁Staates	-13814
▁colours	-13815
▁concepts	-13816
▁deswegen	-13817
▁Parkplatz	-13818
▁receiving	-13819
▁Investment	-13820
Form	-13821
abet	-13822
eten	-13823
▁exit	-13824
▁suit	-13825
▁erhielt	-13826
▁ersetzt	-13827
▁Nachricht	-13828
▁preparing	-13829
▁Konsequenzen	-13830
▁unterscheiden	-13831
For	-13832
▁Amt	-13833
▁Mov	-13834
ktors	-13835
pfung	-13836
rifft	-13837
▁Bang	-13838
ranche	-13839
lication	-13840
▁Tochter	-13841
▁Addition	-13842
▁Beschwer	-13843
▁leichter	-13844
▁Freizügigkeit	-13845
▁Gewährleistung	-13846
EX	-13847
OC	-13848
pft	-13849
▁lit	-13850
ented	-13851
läuft	-13852
riebe	-13853
weilen	-13854
iziente	-13855
▁Monday	-13856
▁erstmals	-13857
▁Programmen	-13858
▁beteiligen	-13859
▁Agriculture	-13860
▁eingehalten	-13861
ни	-13862
aga	-13863
hört	-13864
ulse	-13865
ueller	-13866
▁manual	-13867
▁kleines	-13868
▁Professor	-13869
onie	-13870
▁Plus	-13871
▁2005,	-13872
▁offene	-13873
friendly	-13874
▁subjects	-13875
figuration	-13876
▁beantworten	-13877
▁reservations	-13878
rim	-13879
▁Cub	-13880
▁Sind	-13881
▁wrote	-13882
▁Objekt	-13883
▁genannte	-13884
▁societies	-13885
▁Entlastung	-13886
▁Riv	-13887
▁poly	-13888
▁ships	-13889
sbuffet	-13890
▁Anstieg	-13891
▁Entfern	-13892
▁absence	-13893
▁beendet	-13894
▁exports	-13895
▁prosperity	-13896
▁Unternehmer	-13897
▁acknowledge	-13898
wahlen	-13899
▁catch	-13900
▁Lounge	-13901
▁kilomet	-13902
▁passion	-13903
▁ähnlich	-13904
▁reaction	-13905
▁realistic	-13906
▁Strasbourg	-13907
5)	-13908
cas	-13909
▁Dev	-13910
▁Pos	-13911
lager	-13912
▁Event	-13913
▁Still	-13914
▁boost	-13915
▁lists	-13916
▁spoke	-13917
iensten	-13918
▁Common	-13919
▁lokale	-13920
▁deficit	-13921
ESCO	-13922
▁hyp	-13923
mbuds	-13924
▁Gang	-13925
▁Host	-13926
▁plays	-13927
Beifall	-13928
▁Sunday	-13929
▁Ankunft	-13930
▁übersch	-13931
▁genügend	-13932
geschichte	-13933
▁Arzneimit	-13934
▁specified	-13935
▁entscheidender	-13936
ра	-13937
enth	-13938
▁mac	-13939
lings	-13940
▁Prom	-13941
▁weist	-13942
▁Travel	-13943
▁Francis	-13944
▁unforget	-13945
▁Secretary	-13946
▁satisfaction	-13947
▁Geschwindigkeit	-13948
▁MA	-13949
▁Wal	-13950
deckt	-13951
▁Dolom	-13952
▁anbel	-13953
▁großem	-13954
▁breiten	-13955
▁savings	-13956
▁resource	-13957
ESS	-13958
ila	-13959
afrika	-13960
▁Alger	-13961
▁updates	-13962
▁voluntary	-13963
üst	-13964
▁Sn	-13965
▁20%	-13966
▁Wäl	-13967
▁Kirk	-13968
▁nord	-13969
▁Space	-13970
▁horse	-13971
▁Wetter	-13972
▁diesel	-13973
▁Schwimm	-13974
▁ergänzen	-13975
▁konfront	-13976
▁künftige	-13977
▁standing	-13978
▁anbelangt	-13979
▁illegalen	-13980
ami	-13981
▁mi	-13982
gart	-13983
▁Hom	-13984
▁Mak	-13985
liehen	-13986
ureich	-13987
▁Image	-13988
▁Luxus	-13989
▁acting	-13990
▁erlebt	-13991
▁Wissens	-13992
▁constitute	-13993
▁Übernachtung	-13994
Qu	-13995
lers	-13996
scale	-13997
▁Leon	-13998
▁scre	-13999
recher	-14000
▁Playa	-14001
rechter	-14002
▁Budgets	-14003
▁warrant	-14004
▁Praktiken	-14005
▁betreiben	-14006
▁anschließend	-14007
▁Kab	-14008
wiegend	-14009
▁Castle	-14010
▁stellte	-14011
ianischen	-14012
▁enabling	-14013
▁suggestions	-14014
tty	-14015
gner	-14016
▁Ara	-14017
cribe	-14018
▁tast	-14019
▁tree	-14020
uverän	-14021
▁Leiden	-14022
▁tennis	-14023
Software	-14024
▁deutsch	-14025
▁superior	-14026
▁packaging	-14027
▁Widerspruch	-14028
▁verteidigen	-14029
ni	-14030
aßt	-14031
▁Rab	-14032
▁asp	-14033
orrig	-14034
▁song	-14035
gested	-14036
▁Treib	-14037
▁config	-14038
▁studio	-14039
▁missing	-14040
▁museums	-14041
▁optimale	-14042
▁offiziellen	-14043
ianz	-14044
▁Mur	-14045
istent	-14046
▁knapp	-14047
▁prime	-14048
▁manche	-14049
▁rising	-14050
▁cleaning	-14051
▁LateRooms	-14052
▁Beschlüsse	-14053
▁Vereinfach	-14054
Ben	-14055
aue	-14056
äßt	-14057
ixel	-14058
tung	-14059
▁aufs	-14060
▁hart	-14061
ultane	-14062
▁toile	-14063
▁Gottes	-14064
▁Having	-14065
▁ausgeb	-14066
▁Erfüllung	-14067
▁departure	-14068
▁einbezogen	-14069
▁university	-14070
▁vorbereitet	-14071
▁Verarbeitung	-14072
Im	-14073
COM	-14074
ulous	-14075
grammen	-14076
▁aktive	-14077
ierender	-14078
▁vorrang	-14079
▁weitgehend	-14080
itim	-14081
oles	-14082
▁Nam	-14083
▁Wed	-14084
▁Next	-14085
▁Rule	-14086
anning	-14087
drückt	-14088
▁Telef	-14089
▁allzu	-14090
▁relie	-14091
▁Belast	-14092
▁sounds	-14093
▁attempts	-14094
▁getragen	-14095
▁renowned	-14096
▁comparison	-14097
66	-14098
mpt	-14099
▁30.	-14100
▁ing	-14101
garten	-14102
prozess	-14103
▁Herbst	-14104
▁ökonom	-14105
weisungen	-14106
▁justified	-14107
▁ausgerichtet	-14108
▁unabhängigen	-14109
rome	-14110
lined	-14111
▁Verg	-14112
▁Mikro	-14113
▁Thail	-14114
▁Verzö	-14115
▁doors	-14116
▁glück	-14117
▁Schiffe	-14118
▁musical	-14119
austausch	-14120
▁permitted	-14121
▁aktivieren	-14122
▁appearance	-14123
▁durchschnitt	-14124
abs	-14125
▁64	-14126
▁25.	-14127
▁Norm	-14128
▁lift	-14129
advant	-14130
nummer	-14131
opolit	-14132
platte	-14133
▁herum	-14134
▁shock	-14135
▁upper	-14136
spartei	-14137
agements	-14138
sprachen	-14139
▁bekommt	-14140
▁Existenz	-14141
▁religion	-14142
▁gearbeitet	-14143
▁EM	-14144
Über	-14145
▁Tip	-14146
/2000	-14147
▁Zuge	-14148
werben	-14149
▁skiing	-14150
▁Bulgarien	-14151
▁excessive	-14152
▁extraordinary	-14153
▁representation	-14154
DI	-14155
luss	-14156
▁Pub	-14157
▁pas	-14158
ipher	-14159
werts	-14160
▁hill	-14161
▁bridge	-14162
▁retail	-14163
▁solely	-14164
Applause	-14165
usstsein	-14166
▁Quality	-14167
▁Atlantic	-14168
▁Betracht	-14169
▁gefallen	-14170
▁reduziert	-14171
▁Mitgliedschaft	-14172
lan	-14173
▁cul	-14174
▁root	-14175
▁Klaus	-14176
▁excurs	-14177
▁greatly	-14178
▁mussten	-14179
▁continuous	-14180
▁versichern	-14181
▁investieren	-14182
▁letztendlich	-14183
▁harmonisation	-14184
▁Ly	-14185
▁hilf	-14186
äusern	-14187
auschen	-14188
▁Mittag	-14189
▁Should	-14190
▁batter	-14191
▁looked	-14192
▁legally	-14193
▁municip	-14194
▁vorgesehenen	-14195
▁Pen	-14196
▁defe	-14197
▁shap	-14198
▁bedro	-14199
▁Wähler	-14200
▁Präsent	-14201
▁Kulturen	-14202
▁Weiteren	-14203
▁enhanced	-14204
▁football	-14205
▁schicken	-14206
▁überprüft	-14207
▁ju	-14208
iale	-14209
▁Ball	-14210
▁Mini	-14211
▁Gerät	-14212
▁lunch	-14213
oration	-14214
▁solches	-14215
▁suffered	-14216
▁Veränderung	-14217
▁langfristige	-14218
▁Überlegungen	-14219
Pal	-14220
irs	-14221
▁Bege	-14222
▁burn	-14223
ammelt	-14224
cision	-14225
ieller	-14226
▁surve	-14227
poration	-14228
▁Culture	-14229
▁Pension	-14230
▁amazing	-14231
▁Eurozone	-14232
▁Mountain	-14233
▁Stockholm	-14234
▁destroyed	-14235
edy	-14236
äne	-14237
▁Tw	-14238
Daten	-14239
▁edge	-14240
▁info	-14241
Server	-14242
▁trips	-14243
ichtung	-14244
utation	-14245
▁Golden	-14246
▁Histor	-14247
▁delicious	-14248
▁directory	-14249
▁bisherigen	-14250
▁originally	-14251
▁Perspektive	-14252
▁konzentriert	-14253
77	-14254
zung	-14255
▁Vide	-14256
▁Domin	-14257
▁Textil	-14258
▁UNESCO	-14259
▁deserv	-14260
▁Tourism	-14261
▁welcomed	-14262
▁umfassend	-14263
▁unterzeichnet	-14264
cu	-14265
isa	-14266
▁scene	-14267
auspiel	-14268
▁abziel	-14269
▁leaves	-14270
▁Islands	-14271
▁Flugzeug	-14272
▁Genießen	-14273
▁Kontakte	-14274
▁acknowled	-14275
▁welcoming	-14276
outs	-14277
▁unn	-14278
▁unw	-14279
achts	-14280
▁Gross	-14281
▁Opera	-14282
▁kreat	-14283
▁tritt	-14284
▁gained	-14285
▁hardly	-14286
▁wohnen	-14287
▁federal	-14288
▁Ablehnung	-14289
▁Brasilien	-14290
▁programming	-14291
▁Haushaltsplan	-14292
sie	-14293
▁Dres	-14294
▁Family	-14295
▁sought	-14296
▁dignity	-14297
▁größeres	-14298
▁disadvant	-14299
▁unzureich	-14300
herstellung	-14301
▁zukünftige	-14302
▁enthaltenen	-14303
▁supervision	-14304
▁bereitgestellt	-14305
39	-14306
estra	-14307
▁Ägyp	-14308
fernen	-14309
▁Ansichten	-14310
▁Situationen	-14311
▁Bevölkerungs	-14312
▁Kühl	-14313
▁Sohn	-14314
▁infr	-14315
schläge	-14316
▁errors	-14317
▁Augenblick	-14318
▁Federation	-14319
▁entwickelte	-14320
▁Einstellungen	-14321
▁personenbezogen	-14322
bro	-14323
pay	-14324
▁Based	-14325
▁fleet	-14326
▁paint	-14327
▁Grünen	-14328
▁patient	-14329
▁directed	-14330
▁inmitten	-14331
▁vorgeschlagene	-14332
VO	-14333
▁Bett	-14334
▁nörd	-14335
▁2004,	-14336
▁juris	-14337
▁Chinas	-14338
▁checks	-14339
▁Berliner	-14340
▁Nachhalt	-14341
▁Positionen	-14342
ji	-14343
Vor	-14344
har	-14345
ärkt	-14346
drich	-14347
▁absor	-14348
▁Joseph	-14349
▁Orient	-14350
▁lieber	-14351
▁vollen	-14352
▁führende	-14353
▁acceptance	-14354
▁praktische	-14355
▁preventing	-14356
▁proceedings	-14357
▁militärischen	-14358
weich	-14359
▁movie	-14360
▁stolz	-14361
▁Eingang	-14362
▁rechten	-14363
▁gestattet	-14364
▁philosophy	-14365
▁Reduzierung	-14366
▁politically	-14367
▁kontaktieren	-14368
ätzt	-14369
▁Miß	-14370
reche	-14371
▁Edit	-14372
▁Poly	-14373
▁Volkes	-14374
▁filter	-14375
▁Spitzen	-14376
▁radical	-14377
▁barriers	-14378
▁parameters	-14379
▁Pfe	-14380
▁Fels	-14381
▁tend	-14382
▁warn	-14383
▁Marke	-14384
▁habit	-14385
▁schwe	-14386
▁Gefäng	-14387
▁Gerade	-14388
▁stocks	-14389
▁Fußball	-14390
▁Meister	-14391
▁konkret	-14392
▁realise	-14393
▁democrat	-14394
▁ersetzen	-14395
▁restored	-14396
▁allocated	-14397
▁arguments	-14398
▁negotiating	-14399
▁functionality	-14400
▁unforgettable	-14401
open	-14402
▁Ken	-14403
▁generated	-14404
zuschließen	-14405
▁Gehminuten	-14406
▁einzusetzen	-14407
▁langfristig	-14408
▁unterliegen	-14409
▁significance	-14410
1-	-14411
osp	-14412
pfl	-14413
▁PS	-14414
laut	-14415
▁Erm	-14416
ricted	-14417
▁Spann	-14418
▁Depart	-14419
▁paying	-14420
▁refers	-14421
▁indirect	-14422
▁overview	-14423
▁relative	-14424
▁wireless	-14425
▁Education	-14426
▁hospitality	-14427
▁Entscheidungs	-14428
cul	-14429
▁erz	-14430
plans	-14431
▁rück	-14432
▁sequ	-14433
▁Ergän	-14434
chester	-14435
▁Guests	-14436
▁voranz	-14437
▁Sicherung	-14438
mot	-14439
▁calm	-14440
▁Kreis	-14441
▁decre	-14442
▁Klasse	-14443
▁Meeting	-14444
▁indicate	-14445
▁romantic	-14446
▁gerichtet	-14447
▁specialist	-14448
osing	-14449
▁Coll	-14450
eschäd	-14451
uggage	-14452
▁Korre	-14453
▁arran	-14454
▁Schüler	-14455
istischer	-14456
▁Hardware	-14457
▁Corporate	-14458
▁Vorgehens	-14459
▁freundlich	-14460
▁complicated	-14461
▁verfügbaren	-14462
▁Professional	-14463
▁kontrollieren	-14464
▁85	-14465
▁Fle	-14466
▁Sob	-14467
thand	-14468
▁Full	-14469
▁Bonus	-14470
▁Alltag	-14471
▁sharing	-14472
▁Transfer	-14473
▁freedoms	-14474
▁remained	-14475
▁characters	-14476
▁vorzulegen	-14477
▁23.	-14478
▁ACP	-14479
▁Dor	-14480
▁Emb	-14481
▁Sky	-14482
emark	-14483
niveau	-14484
▁Stoff	-14485
outique	-14486
▁Wählen	-14487
▁anhand	-14488
instrument	-14489
▁Plattform	-14490
▁bedeutend	-14491
▁reflected	-14492
▁anzuzeigen	-14493
▁transferred	-14494
▁strengthened	-14495
▁unterstreichen	-14496
▁zurückzuführen	-14497
▁с	-14498
ugt	-14499
▁voran	-14500
▁attrib	-14501
▁farming	-14502
▁cooperate	-14503
USS	-14504
aton	-14505
zell	-14506
ipfel	-14507
zahlen	-14508
▁begeg	-14509
▁repair	-14510
▁Content	-14511
▁everybody	-14512
▁existiert	-14513
▁enterprise	-14514
▁Katastrophe	-14515
Me	-14516
emit	-14517
ATION	-14518
▁Vort	-14519
▁ende	-14520
▁hast	-14521
▁cells	-14522
▁songs	-14523
▁Empfang	-14524
▁hierbei	-14525
▁Erlebnis	-14526
▁angepasst	-14527
▁bedeutende	-14528
▁entreprene	-14529
▁Entspannung	-14530
▁vorliegende	-14531
▁konfrontiert	-14532
▁Commissioners	-14533
betten	-14534
▁Zürich	-14535
▁Millenn	-14536
▁combine	-14537
▁geplant	-14538
▁selling	-14539
▁begrenzt	-14540
▁menschliche	-14541
ski	-14542
▁Hot	-14543
zepte	-14544
▁Geträn	-14545
▁Lernen	-14546
bereichen	-14547
▁Situated	-14548
▁angenehm	-14549
ungssystem	-14550
ency	-14551
orer	-14552
▁gebrauch	-14553
▁wellness	-14554
verwaltung	-14555
technologie	-14556
▁finanziert	-14557
▁transmission	-14558
run	-14559
▁cuts	-14560
▁fees	-14561
ounted	-14562
▁könnt	-14563
▁tables	-14564
▁examine	-14565
▁forests	-14566
▁geprägt	-14567
▁invited	-14568
▁Australia	-14569
quer	-14570
▁Por	-14571
▁hes	-14572
▁zit	-14573
burgh	-14574
itale	-14575
seite	-14576
▁1991	-14577
▁none	-14578
▁Befür	-14579
▁blind	-14580
▁obser	-14581
ksamkeit	-14582
▁ordinary	-14583
▁perfekte	-14584
▁ministers	-14585
▁Tätigkeiten	-14586
erb	-14587
▁lö	-14588
utral	-14589
▁Place	-14590
▁ergibt	-14591
▁internen	-14592
▁computers	-14593
▁komplette	-14594
▁Abendessen	-14595
▁zukünftigen	-14596
▁herunterladen	-14597
▁hervorragenden	-14598
ijk	-14599
▁eat	-14600
▁1960	-14601
▁fans	-14602
▁teile	-14603
▁endorse	-14604
▁Prozesse	-14605
▁Saturday	-14606
▁covering	-14607
▁schlagen	-14608
▁verteilt	-14609
▁suggested	-14610
▁contributed	-14611
roc	-14612
greg	-14613
onst	-14614
unge	-14615
▁Euch	-14616
▁NGOs	-14617
▁Album	-14618
▁enger	-14619
▁Saison	-14620
▁freely	-14621
▁hinweg	-14622
zusammen	-14623
▁cancell	-14624
▁Industry	-14625
▁Stability	-14626
▁Stuttgart	-14627
▁mitteilen	-14628
▁speichern	-14629
▁spezifische	-14630
▁Regierungschefs	-14631
bsp	-14632
imp	-14633
▁CAP	-14634
▁Rod	-14635
▁shar	-14636
grenze	-14637
▁pharm	-14638
▁ports	-14639
ugoslaw	-14640
▁Latein	-14641
▁Serbia	-14642
▁Socialist	-14643
▁abstimmen	-14644
▁beeinträcht	-14645
▁forthcoming	-14646
▁hervorgehoben	-14647
88	-14648
▁§	-14649
▁TR	-14650
▁PSE	-14651
ieval	-14652
▁Sied	-14653
▁showed	-14654
▁aggress	-14655
▁recognized	-14656
▁multilateral	-14657
illed	-14658
▁Oste	-14659
▁metro	-14660
▁Sachen	-14661
▁surely	-14662
▁Komplex	-14663
▁enabled	-14664
▁Ausflüge	-14665
▁Planeten	-14666
▁Sammlung	-14667
▁Befugnisse	-14668
▁Willkommen	-14669
▁productivity	-14670
▁Gleichstellung	-14671
▁Cond	-14672
lements	-14673
▁portug	-14674
▁stages	-14675
▁behoben	-14676
▁deliber	-14677
▁Aufenthalts	-14678
▁Generationen	-14679
uum	-14680
baus	-14681
▁tranqu	-14682
mbudsman	-14683
▁Dritten	-14684
▁ausgehen	-14685
▁Aufsichts	-14686
▁empfohlen	-14687
▁gewünschten	-14688
▁introducing	-14689
▁EX	-14690
▁ou	-14691
▁ré	-14692
andt	-14693
erer	-14694
hyth	-14695
stal	-14696
eding	-14697
achter	-14698
▁Civil	-14699
▁layer	-14700
▁Suiten	-14701
eitigung	-14702
ophistic	-14703
▁Belgien	-14704
▁Urlaubs	-14705
▁arising	-14706
▁Johannes	-14707
▁excluded	-14708
▁amenities	-14709
▁vornehmen	-14710
▁referendum	-14711
▁Darstellung	-14712
cs	-14713
coun	-14714
made	-14715
odge	-14716
ords	-14717
llers	-14718
▁Aben	-14719
▁Beste	-14720
▁manip	-14721
▁machte	-14722
▁penalty	-14723
▁Maschine	-14724
▁Vorhaben	-14725
▁instructions	-14726
▁Binnenmarktes	-14727
öch	-14728
▁Ruf	-14729
▁Frist	-14730
▁Moroc	-14731
▁Spekt	-14732
▁Direct	-14733
▁plastic	-14734
▁anhalten	-14735
▁hochwertige	-14736
▁Mah	-14737
▁Pac	-14738
▁ere	-14739
▁Conf	-14740
▁cart	-14741
immers	-14742
▁Vista	-14743
▁Würde	-14744
▁Sloven	-14745
▁fascin	-14746
▁Gespräch	-14747
▁simultane	-14748
▁Beteiligten	-14749
pat	-14750
utor	-14751
ugang	-14752
▁Zone	-14753
▁saved	-14754
▁cancer	-14755
▁verdienen	-14756
▁Widerstand	-14757
))	-14758
32	-14759
lac	-14760
rik	-14761
izen	-14762
▁Conc	-14763
▁Catal	-14764
▁Geneva	-14765
▁Rückkehr	-14766
politische	-14767
▁dargestellt	-14768
▁sogenannten	-14769
.“	-14770
Auf	-14771
ußt	-14772
Pres	-14773
alus	-14774
iban	-14775
opes	-14776
ypen	-14777
mmern	-14778
▁Distr	-14779
Staaten	-14780
▁Meines	-14781
▁Montag	-14782
▁grosse	-14783
▁splend	-14784
▁obliged	-14785
▁sichere	-14786
▁turning	-14787
▁festival	-14788
▁Steuerung	-14789
▁labelling	-14790
▁Wochenende	-14791
▁concentrate	-14792
▁generations	-14793
ко	-14794
onic	-14795
[...]
